memory_initialization_radix=16;
memory_initialization_vector=
0388,
0486,
0510,
01bf,
ff8b,
ffba,
fce9,
009e,
fe49,
febb,
fe9d,
ff49,
fcc2,
04b2,
ff2b,
0203,
02dc,
0310,
0071,
0369,
ffbd,
fd71,
ffbc,
fc2e,
fccf,
04a1,
032a,
03a4,
fc21,
0227,
fc09,
00f1,
ffed,
fe90,
002f,
fe28,
0381,
fc53,
fdb4,
fdfd,
012e,
023d,
fef5,
04e9,
fbda,
fb53,
ff2a,
ff73,
0499,
0037,
0127,
fd8a,
fd48,
003b,
01e6,
fe87,
01cd,
ffb7,
034b,
04e2,
fee2,
00e2,
004f,
024e,
01a0,
ff11,
003d,
0221,
0286,
ff53,
ffdf,
ffa3,
01f3,
03f0,
0230,
071a,
0115,
05f1,
fdf9,
0432,
fe44,
0266,
01c8,
0025,
0189,
ff1f,
ffe9,
020b,
ffbb,
006c,
02b1,
01ce,
0075,
fe4e,
fa67,
f8ca,
f74d,
f87f,
faf6,
010e,
ffe1,
00ab,
026a,
02a0,
0472,
0422,
04cc,
0665,
ffb3,
fe80,
00b9,
018a,
ffb9,
fc79,
04b6,
041c,
fe81,
0513,
0404,
0296,
ffb2,
fc1a,
001d,
fbbf,
fb46,
fc99,
019d,
0053,
06b8,
03d8,
ff82,
0584,
03d3,
0159,
0239,
09a9,
0342,
0377,
ff0f,
02b7,
039b,
fcfc,
0062,
0428,
fe07,
03e5,
fd6b,
ffbb,
feb6,
fcb2,
fe4b,
fb88,
0164,
fb6a,
fb9a,
fadd,
033e,
03fe,
0091,
09ee,
0823,
070f,
08dc,
0376,
092f,
ff79,
fee8,
ff2f,
01d6,
fccf,
0372,
fd2f,
fe7d,
fd81,
0097,
fa92,
0066,
fa8d,
f907,
f810,
0248,
fdaf,
fcaa,
f973,
f86b,
fd1c,
f7dc,
006f,
0d84,
02ba,
05cf,
03bd,
0639,
0294,
ffb0,
fcf8,
021a,
fe28,
01ad,
03bc,
fea1,
fee4,
fafe,
020f,
0126,
0129,
f87c,
f5cd,
f939,
f84b,
fca6,
f94e,
f9f8,
febe,
fffd,
03ff,
0a6a,
0376,
080f,
037c,
0047,
0598,
fd63,
0502,
fecd,
04b6,
0161,
fdf3,
04c4,
05df,
0572,
0a93,
01bf,
fdeb,
f813,
ffcb,
fbfd,
0471,
fe24,
f92b,
ff02,
fd78,
04f2,
08bd,
09c6,
0407,
ffe2,
fc7c,
ffa0,
0184,
fd3a,
ffbb,
04b0,
0177,
0361,
0584,
028b,
03f2,
05aa,
0a01,
075d,
fc16,
ff0d,
003a,
fb49,
ffdc,
0285,
fdf9,
0524,
ff60,
088c,
07c6,
fcb2,
fa75,
fa75,
fb17,
02b0,
0153,
01bc,
01f4,
feed,
01ff,
0006,
fe33,
0375,
0b27,
0cf7,
0967,
024f,
02c4,
01b3,
020a,
05cd,
fffd,
058d,
08d3,
00b5,
03ad,
fe2c,
fd1a,
f5f7,
f5a2,
f3b1,
f9de,
fc55,
ff1a,
04a8,
0496,
04b1,
fe76,
02d5,
03d4,
0a91,
06b6,
07f0,
05eb,
feeb,
ffc6,
0249,
0695,
03f4,
0466,
084e,
069f,
063f,
fbf7,
f9f8,
f58b,
f276,
f4b3,
ec06,
f980,
fe16,
003c,
00f7,
fde8,
ffa1,
0093,
0409,
0185,
019e,
0677,
002f,
fe01,
0094,
001e,
febe,
0a7d,
0a36,
05b6,
02fa,
080b,
0675,
f5dc,
f7d0,
f575,
fc18,
f777,
f024,
f42c,
ff75,
023b,
0386,
fe53,
0461,
ffc2,
0097,
031c,
fc6f,
085b,
0331,
fbaa,
0188,
064c,
fb10,
ffe3,
0bc7,
0986,
03b3,
022a,
00ff,
fdfb,
fb2e,
f7e7,
ff41,
f823,
f39e,
f44e,
f848,
fb6a,
fc9f,
02e3,
037c,
feee,
0277,
037a,
fd57,
02ca,
001d,
f895,
0078,
fc87,
fe05,
fa7b,
f996,
ff12,
041f,
027b,
0627,
ff3f,
f5b9,
faf7,
0359,
f691,
f258,
f0b8,
f8c5,
fd4e,
fc48,
00b7,
01cf,
0065,
0492,
026b,
fca9,
fda2,
038b,
07fa,
0363,
026e,
fa74,
f9c2,
fdc3,
09ac,
0d9c,
083d,
02bc,
fcb4,
03af,
0145,
fd0a,
fafd,
f9f2,
f905,
fb2b,
fede,
009c,
fdcf,
043a,
ffb5,
fc9d,
0127,
fef3,
0382,
016a,
0ab1,
038b,
0007,
f30a,
fa49,
00f9,
0985,
0e30,
02d5,
048d,
00e5,
0422,
0637,
0104,
ff9f,
f929,
fe3e,
0072,
fc82,
00f6,
fdce,
fdb1,
0397,
0422,
012c,
fedb,
fe61,
044a,
06c0,
031e,
f60f,
f738,
fd66,
01ec,
0a32,
09d0,
0246,
01f2,
f9b9,
0183,
03ac,
0cfc,
06e1,
0157,
fed4,
0196,
fc3c,
01e0,
0105,
fd93,
009a,
02a4,
ff1c,
02fe,
fd38,
fa5c,
031d,
fd38,
fda7,
f634,
fc40,
0a09,
0e92,
ff53,
006d,
f8eb,
006b,
0163,
0560,
0b69,
ffa0,
f8bb,
f789,
ffc7,
fc7f,
0349,
00fe,
02d7,
032a,
fe2f,
02cd,
000f,
fd70,
fb48,
ff1c,
fd5a,
0044,
0180,
007c,
0136,
0371,
fb2a,
03ca,
02bd,
0703,
00e5,
03f6,
0567,
02f3,
ff26,
027c,
03c7,
00b4,
021b,
04fc,
03da,
0305,
0207,
00ee,
fc02,
fa33,
fff3,
f92e,
fb63,
ff40,
ff7a,
04dc,
0789,
fb3c,
fd50,
0afa,
0445,
0735,
0b66,
02c7,
0a20,
074f,
0476,
004e,
fed3,
031b,
fea4,
fead,
0190,
fd18,
fe1a,
016f,
febc,
f9be,
fb61,
f913,
fda1,
0231,
035a,
06f6,
fe29,
fe97,
0236,
0d2b,
0800,
0f56,
0a32,
069c,
0708,
feb7,
00af,
ff1e,
fc6f,
fd6d,
fbec,
ffb0,
0503,
02a3,
ff4d,
fd5b,
059a,
000e,
f7e0,
f71e,
f957,
fb3f,
0022,
02ba,
01a6,
02fb,
0730,
07db,
0939,
0352,
043b,
0365,
04b2,
0151,
fd93,
fa63,
fd0b,
033a,
01ee,
043d,
fead,
fd6a,
013e,
00e2,
045e,
0099,
fbd1,
fa6d,
f947,
fb6f,
fb25,
fae2,
029b,
0756,
03ec,
06a1,
05d4,
fe3d,
02f1,
059c,
06b2,
fbc6,
0035,
fb44,
012e,
0111,
02c2,
fe2d,
041d,
0093,
fce9,
02b5,
f9ef,
ffde,
fdb6,
f67e,
f85d,
0841,
05a5,
0586,
ffdf,
ff41,
fdc0,
f792,
fde0,
f205,
f84a,
01da,
fe98,
f828,
ff92,
fc13,
01b7,
045c,
ff04,
fc60,
0206,
042c,
fef8,
ffc6,
0030,
fda7,
fb66,
fad1,
f814,
fd89,
00b8,
fd29,
ff26,
fd40,
fdac,
fa9b,
fb70,
fccc,
faaf,
f923,
f7b0,
fe75,
03fd,
0321,
0517,
02b0,
0016,
0423,
03a7,
033b,
feb1,
fefd,
fbd5,
0204,
fc19,
00e0,
fbce,
f912,
fa89,
f8bb,
f517,
f5ed,
faf8,
f9a7,
fd8b,
f9fa,
f784,
fc22,
fd02,
00b1,
fdcd,
003b,
037b,
0183,
fe3c,
0048,
01db,
050b,
045e,
0380,
0143,
fd14,
fd88,
02df,
0365,
ff1d,
03f2,
010e,
02a3,
ff7d,
fbdf,
03eb,
0265,
031f,
013f,
01e1,
034b,
0141,
0144,
fe4b,
0025,
ffa9,
fc06,
fdc0,
fe17,
ff9d,
0378,
fc65,
ff95,
0065,
053d,
00c8,
038a,
00c2,
010e,
006f,
002c,
00f7,
0456,
0487,
fdfa,
048b,
04da,
0082,
ffc1,
0081,
fd6c,
fd87,
02a7,
0143,
03d5,
0189,
fca4,
fd44,
fcc7,
fe7a,
03b6,
0388,
0138,
fdf6,
02cc,
0219,
0058,
fdf9,
fc96,
fc34,
00b1,
00ba,
fd4e,
fc26,
ff8d,
fe64,
fdf5,
fde3,
0023,
02f6,
02f9,
0087,
019b,
fc63,
fed7,
fcdf,
007b,
04ca,
020d,
0138,
fd16,
fce6,
0303,
0351,
fe86,
0097,
022c,
fff1,
018c,
01bd,
fd3e,
febd,
048b,
0487,
01ed,
fc25,
022d,
0004,
fd8e,
0027,
fc5a,
0289,
0501,
fcc0,
044c,
fd8f,
febf,
ff66,
019d,
fee8,
015d,
fdad,
fc4e,
f968,
0046,
0172,
fa9e,
01d6,
ff8b,
0586,
fe4b,
03b2,
fd66,
016f,
f855,
f9d9,
fe74,
01ad,
ff15,
0375,
04e4,
00b1,
0526,
fcb4,
fe78,
0327,
fecc,
fb02,
f9d9,
ff34,
ffc7,
03c6,
06bc,
080d,
075e,
010d,
fdbe,
05fa,
0130,
feb7,
f98c,
fb2c,
f842,
f6fe,
fded,
ff6e,
051a,
fd31,
0047,
fe51,
0087,
fc90,
01d0,
02a0,
ffe6,
fa31,
fb59,
f98d,
f37d,
0179,
09f7,
07de,
ffd3,
f6d1,
faf5,
f4d4,
ed85,
f03b,
f349,
f4fd,
fc3c,
fb69,
ffc2,
0496,
0406,
fd8e,
03f6,
0105,
fe74,
010e,
fd91,
fcdd,
fe82,
fa69,
f675,
ee79,
fa6b,
02d1,
fe54,
fd8d,
f7f2,
fa3b,
ef63,
f460,
f451,
f9ea,
fe9f,
004b,
fef3,
0121,
037f,
06af,
0180,
0075,
052d,
00fc,
02b4,
008c,
fe34,
fd10,
f8c4,
f841,
f5f6,
00f4,
067d,
0705,
0561,
0082,
fc7b,
f657,
ffcd,
fd35,
0414,
0093,
085e,
0ab2,
0c78,
0c75,
074b,
08b1,
0558,
fe2a,
02ce,
fdbf,
020b,
fde8,
ffb3,
fcf1,
01ad,
02e0,
f650,
0680,
091b,
0804,
07c4,
03cd,
0578,
0481,
07e6,
0be8,
06d6,
0bdb,
0e79,
0ba6,
02cf,
0e5d,
1074,
0606,
00ce,
0073,
000b,
fe4d,
04e6,
0323,
0130,
04c5,
04cd,
ffe3,
fa3e,
0326,
054e,
0e1b,
0077,
0752,
0a64,
076b,
01c8,
0ec6,
0ce2,
0560,
01ca,
ff30,
07a6,
062c,
09f2,
04b8,
0409,
012c,
0207,
00f3,
01e6,
fdef,
027b,
029a,
0529,
fe06,
fedf,
01af,
0d57,
06fd,
fea5,
08dd,
059d,
0795,
ff07,
00d3,
06e6,
fe65,
f954,
faa7,
fd11,
003c,
0188,
0844,
02c8,
ffa3,
fda4,
ff98,
feb8,
0246,
fd82,
092d,
ff87,
fff6,
fd0e,
0545,
04fd,
055b,
fec5,
0780,
03c9,
fa0c,
f145,
f580,
fefb,
f6c4,
f0fc,
fbdc,
f6ff,
f74a,
f5b1,
04dd,
0394,
0408,
fe0b,
034f,
05f6,
007f,
038d,
0716,
0460,
0795,
0334,
0870,
0399,
ff37,
fa92,
02ad,
01f3,
f4e6,
f653,
f78b,
f8bf,
f352,
f3aa,
f5ef,
f3f5,
f00f,
fa4d,
fd33,
ffaa,
ffdd,
01c6,
02da,
fe06,
00e6,
fa2d,
07b0,
033a,
059d,
fe7d,
080a,
0215,
fc8b,
fcdc,
0062,
035e,
fb3d,
f9e4,
fc1e,
fa3d,
f491,
f853,
fbbb,
f393,
f50e,
fe78,
ff23,
ff72,
fd35,
030f,
0132,
fe10,
049a,
ff25,
fd30,
03dc,
02fd,
022c,
0211,
fda5,
fb4c,
f586,
fce4,
00e1,
fcae,
fca0,
f784,
fa40,
fe96,
0203,
feb2,
fc55,
fe9c,
0375,
0261,
fffd,
fc53,
04c9,
fcbf,
fd5b,
0177,
f9b3,
0602,
02aa,
0970,
ff41,
0006,
fe83,
fad4,
fc95,
f757,
f7ae,
fcfa,
fc4e,
f836,
00e0,
fd46,
ff4b,
fcff,
f9f8,
0736,
0285,
fdc9,
fdf0,
fe8b,
0078,
016a,
0119,
fad0,
fcdf,
01c1,
0105,
01c7,
07dc,
04da,
fc6c,
f400,
f6a8,
f0ae,
f88e,
f961,
f9f3,
fdb5,
fe9b,
02aa,
fc19,
fcbe,
fe35,
f910,
fe5c,
fb6e,
fe3f,
ffa1,
0235,
0480,
01d1,
fa70,
fbd6,
02f1,
ff22,
ff21,
fcf3,
fa5c,
f72c,
f6b9,
ec30,
f3c1,
fb34,
0168,
f4e4,
01e9,
0062,
fd4a,
fad9,
f641,
f932,
fb6b,
fb16,
fdfa,
01e9,
050c,
019c,
0540,
ffac,
f536,
0228,
ff8b,
0186,
062c,
f94a,
f566,
f564,
f27f,
edd5,
f404,
008b,
fd0d,
01a8,
0058,
0240,
0528,
083e,
f91c,
f9b1,
fe76,
00d5,
fc52,
00b9,
ff1d,
fe1e,
fd87,
03a4,
fb13,
ffe0,
02b0,
06ae,
0363,
ff77,
fb5c,
f463,
f4ac,
f31a,
fea4,
fe77,
067d,
0057,
02c8,
0664,
0b02,
fd15,
f682,
f689,
fbe5,
fbf2,
00ad,
0031,
012e,
fc9d,
fd94,
0223,
fa79,
fc11,
fc10,
ffa7,
fb0d,
ffe4,
fb78,
f7f4,
fa04,
fad1,
0132,
02cf,
054c,
ffa4,
00e8,
0084,
0675,
fab8,
f502,
f8f6,
02e0,
fd0c,
fea3,
0387,
02a3,
02a7,
000d,
ff95,
f95e,
f760,
fb46,
fdc2,
fddc,
fe1a,
0161,
fb37,
ff92,
0247,
ff39,
0383,
0358,
fe75,
fd20,
0884,
0870,
03ad,
fac2,
ff73,
0393,
01f6,
fe4b,
04df,
044f,
0328,
ff09,
02a0,
ff22,
008e,
fde0,
ffcc,
fa2d,
0109,
014d,
04a0,
04a1,
01b8,
fcb3,
fe5c,
03f9,
fc6a,
f95b,
fe93,
0546,
0413,
023b,
fdf0,
fe2e,
fdcb,
ffb5,
fc90,
fe13,
0288,
fd55,
0340,
05cb,
054d,
029d,
035c,
0185,
fa6a,
fc37,
0358,
fec3,
0559,
f9b9,
0172,
0361,
f5e2,
f7e9,
f97b,
ff81,
077b,
0179,
fa1e,
ff6b,
fd08,
fd52,
02bc,
0155,
00f0,
03be,
00a3,
020e,
04f1,
049b,
046d,
07d8,
054b,
031b,
ff16,
035e,
05f6,
fe60,
fb4a,
ffba,
f7a6,
0080,
02e4,
02e5,
04b6,
0352,
028a,
049e,
0337,
fd96,
fd42,
fcdb,
ff40,
005a,
ff56,
00c9,
04e5,
0094,
0154,
06c0,
0767,
06f7,
fdf5,
031e,
0d48,
0594,
05d7,
011f,
ffe8,
030d,
07e6,
0891,
0466,
02a0,
fd38,
fe38,
03fe,
fcf3,
fd88,
fc33,
03c7,
04ad,
fced,
0457,
026f,
ff1f,
fbd2,
026a,
050b,
0171,
02cd,
001f,
062b,
fee1,
00c0,
0995,
0a67,
ffa9,
021b,
09a9,
0028,
ff57,
02a7,
0093,
052f,
fdc8,
041e,
fca9,
ff6e,
fd4f,
ffbe,
fd63,
039c,
fede,
0182,
009f,
fd57,
ff30,
fdcf,
000b,
056b,
054b,
0071,
0288,
0164,
ff6c,
02b6,
00e2,
fe40,
fef4,
030c,
fd18,
fdaf,
0073,
fea5,
0457,
feef,
04dd,
0612,
0379,
059a,
fe47,
ffaf,
0075,
05f6,
06cc,
0561,
fff1,
0726,
0542,
052a,
067c,
005e,
fe01,
05f9,
02bd,
06c2,
fe52,
0417,
0616,
fdfe,
030a,
0665,
05d3,
025d,
050f,
ff14,
0540,
025e,
0698,
00d6,
019f,
0397,
07a2,
049e,
ff94,
088c,
065f,
03e5,
013b,
0245,
074e,
027e,
ffa2,
0600,
03f5,
04dc,
ff4a,
010f,
01bf,
026f,
ff9a,
06cb,
fedb,
043c,
04a3,
ff7f,
0266,
082c,
0542,
0a9c,
01be,
0a6d,
0711,
08d8,
07da,
059f,
0898,
ff16,
fda1,
ff4b,
000c,
fe19,
0326,
0165,
007c,
0082,
03fc,
0366,
fe2c,
0535,
02a8,
059f,
0031,
011f,
06fa,
052e,
093a,
09f0,
03b8,
03d9,
0cc5,
0657,
1013,
115b,
0598,
02bb,
01be,
fa2b,
ff75,
fdc1,
010f,
03c2,
0089,
fe07,
fef1,
0564,
0560,
0529,
0550,
0549,
0580,
ff95,
01ac,
0522,
0490,
0a1f,
02d2,
0433,
0330,
0f59,
055f,
00f5,
f17a,
f4ea,
f7ab,
f37b,
f861,
f94f,
f81d,
01d9,
00c0,
02df,
06ef,
033c,
ff49,
015b,
ffac,
02fb,
ffd3,
05f3,
04a3,
0765,
0a65,
0cd3,
0d35,
0176,
fff7,
04a2,
fcc0,
fa9f,
ef5d,
ec65,
edbc,
f12c,
eee4,
f3dc,
f4bf,
f673,
fecd,
fb14,
0603,
00f9,
fef1,
0457,
0647,
03e6,
04cf,
0a48,
02fd,
fc62,
0599,
00d1,
0878,
fed2,
03bc,
ffa6,
0527,
0134,
f773,
f711,
f937,
f067,
ef3e,
f552,
f3bc,
f040,
f881,
fbba,
febd,
fe4b,
014b,
ff35,
fe91,
ffa4,
ff8b,
04ac,
f7fc,
f98a,
fb67,
fb75,
fee0,
02b6,
fcce,
0632,
04bc,
028f,
faa7,
f46b,
f67a,
f446,
f31b,
f341,
f83d,
ee10,
f08a,
f546,
009b,
01c5,
023e,
064c,
0316,
0794,
ff4f,
02e5,
f9d3,
02a9,
016b,
fdbd,
089b,
0360,
ff96,
0265,
0936,
0064,
ffb0,
f971,
f372,
f716,
ff47,
fbcc,
fdcf,
fde8,
f3bc,
fa82,
f8dd,
fe44,
fe34,
045e,
00e3,
037d,
ff24,
0bf3,
05b2,
fb7c,
0145,
006f,
07ba,
0104,
ffb7,
0066,
017b,
f944,
fbec,
f57c,
fdae,
0130,
01a9,
ff12,
0a9a,
0305,
045a,
0200,
fd3c,
0081,
06ba,
053d,
002f,
0375,
06c9,
0b07,
03f8,
ff56,
fee2,
00f7,
07e8,
fea1,
f5bc,
f6b7,
f47f,
f34a,
f275,
fc9b,
fdf9,
fc94,
ff4c,
0143,
04fa,
0ca9,
09aa,
f9f7,
fd6a,
0057,
fedf,
0573,
0546,
0847,
0a0f,
0694,
fd11,
0097,
ff07,
0083,
04da,
fd46,
fb38,
f7be,
f96b,
f5bd,
03ad,
0b31,
0bdb,
026c,
01c0,
ff58,
02d8,
084b,
0818,
01bc,
fcfc,
0043,
05e3,
052c,
051b,
079a,
0699,
0692,
0038,
fbee,
01cf,
091e,
0275,
fb52,
f93b,
eecb,
f1b9,
fcc6,
0582,
0fe3,
0d3e,
0732,
00ac,
fe14,
013b,
0c20,
0874,
093d,
04fc,
020c,
0635,
026f,
ff3f,
ff77,
0220,
0663,
fefd,
01e5,
0191,
fffc,
021d,
01ce,
f424,
f0cd,
f4f9,
0342,
0325,
0cf1,
0754,
03ae,
0300,
0541,
0276,
00c9,
ff8d,
02fa,
0195,
03d8,
fe67,
01ec,
fff7,
071f,
03df,
03ba,
f9b7,
fbd4,
01a7,
01ad,
058e,
0022,
fccd,
f768,
f79b,
faf4,
f7d3,
ff84,
0578,
08e9,
022a,
09f2,
04e6,
053a,
0540,
f9aa,
0468,
02a5,
ff66,
ffc8,
0548,
02aa,
009b,
0147,
ff43,
0454,
ff94,
fb36,
fc4b,
00c6,
f9ea,
f643,
f34c,
fb84,
fcf3,
fb2b,
0bb0,
0099,
ff8d,
0a65,
0644,
0760,
f68b,
fecc,
0a7d,
0446,
0207,
fff5,
022a,
03de,
fff7,
0294,
0481,
0302,
05f0,
003a,
0549,
05a6,
039d,
f91f,
f587,
fd2d,
fd02,
fe2d,
052b,
0324,
01d2,
078a,
0287,
0364,
f9c4,
fde8,
0870,
0062,
fe43,
ffe7,
0318,
046b,
0770,
00a2,
fb07,
fbed,
017a,
fc5c,
fa3d,
0555,
0019,
021c,
fcb1,
fdb1,
fb94,
066b,
076f,
fe5c,
00f0,
047b,
01df,
05fd,
f8f1,
f906,
0707,
0352,
ff1d,
0370,
06a3,
fe6f,
ff27,
0155,
f6b3,
0135,
0696,
fa44,
fc9e,
fc18,
fe8e,
041e,
fc6e,
ff1a,
f958,
044c,
0ae6,
03d6,
0332,
fc87,
ff0f,
00d1,
f75b,
f9a4,
0121,
003a,
04c3,
0055,
02a9,
03ee,
fa35,
00cb,
fcde,
fd90,
febb,
fa30,
f93e,
fddb,
fcfa,
fe10,
fd9f,
fabf,
f6ad,
077a,
0990,
039a,
fd08,
fb97,
f956,
f97d,
fba4,
fb68,
00d8,
0649,
fffb,
00f6,
0418,
021f,
fe41,
01ab,
f8d7,
ff81,
030a,
fa5a,
f897,
f8bc,
f7e2,
f960,
ff03,
0123,
004a,
059f,
0a37,
0041,
fda9,
f6b8,
fb74,
fb30,
f668,
fb64,
0325,
0195,
01d1,
fe3a,
0016,
011e,
fda2,
fb4f,
fb47,
fb1f,
ff35,
0155,
fb94,
fa90,
fb10,
f298,
fd37,
0170,
01f2,
04d0,
04f2,
06e1,
f920,
fa3f,
f4ec,
fa61,
f60d,
fdc9,
012e,
fe49,
05b7,
fe73,
ffbc,
041f,
04b3,
06b0,
fb7f,
0113,
f9c9,
fb2d,
0060,
011c,
f6cc,
f4dd,
f349,
f635,
01e4,
fea7,
0528,
001a,
fbf9,
fc3b,
f30b,
fa33,
f7b9,
fe3b,
02aa,
0316,
050b,
ff0b,
030f,
04a1,
0270,
02b1,
037a,
031e,
fd0b,
0085,
ff3c,
fa7b,
f308,
f433,
f2a8,
f8c7,
fe1c,
fe36,
0560,
fe0f,
fde0,
fae7,
ffe8,
fb3d,
0201,
fe3a,
0150,
0321,
0545,
feae,
ff5c,
06c1,
01cc,
063b,
06ac,
004e,
0524,
0449,
feab,
ff27,
f197,
eed5,
ef12,
f593,
fd67,
03a6,
0396,
067a,
08e7,
0528,
095d,
fc8f,
0438,
04cf,
0651,
006e,
0398,
0097,
0687,
00fd,
0604,
0293,
0305,
06a9,
ff30,
036b,
02a6,
f7dd,
f1a2,
ef1e,
f001,
0355,
fc19,
0276,
0ad8,
06e0,
032a,
0305,
0270,
fbf6,
03fb,
0249,
fe3f,
05cc,
fe34,
01c8,
02ca,
ffdd,
05a7,
0304,
05f4,
ff87,
ffd6,
05d9,
00ec,
fe27,
fb05,
00f6,
0063,
0e00,
ff4a,
0ac8,
0bd0,
08dc,
0cb7,
09a9,
0222,
07d4,
007c,
04e6,
06ac,
0104,
0247,
ff92,
ffa4,
05b9,
0467,
063a,
fe79,
06af,
0706,
0077,
ff7c,
ff97,
0600,
074c,
07d9,
024e,
028b,
0090,
0588,
0198,
0461,
065c,
0476,
0523,
ffec,
0194,
ff67,
feb3,
0001,
ff7c,
fe64,
fc0c,
0021,
ffe2,
fd4c,
feec,
fe34,
04d3,
fd30,
fdf4,
ff84,
0389,
03cf,
03dd,
02ee,
fc0c,
0097,
046d,
01c0,
fc59,
fe2d,
0382,
fdfe,
ff43,
fd8a,
027a,
02a3,
fc18,
ff2d,
ffd7,
fd82,
fee8,
0315,
04c8,
fdaa,
04b9,
00e3,
0119,
002e,
000f,
04e5,
0163,
0470,
00ea,
fe12,
0528,
04bb,
01cf,
04bc,
03b4,
023d,
ff70,
00ca,
fecb,
0423,
0292,
000d,
ff02,
04d1,
04a1,
011b,
03cb,
04eb,
ff22,
03d9,
0327,
fd0a,
fef3,
0252,
038e,
055f,
ffe4,
ff78,
08e3,
0831,
ff74,
0476,
069c,
0439,
fe72,
fdcd,
fe14,
fe6c,
02d6,
fbd6,
0257,
00d0,
ff7e,
fdb6,
0137,
fe47,
fe42,
02e2,
fed1,
011b,
01c5,
ff5e,
03b5,
013d,
05a5,
0781,
0b4d,
0a95,
0634,
0518,
01e2,
00f5,
ffa9,
027c,
0423,
fcef,
047c,
02b4,
ff9a,
fee3,
0073,
05a9,
ff3f,
049a,
0152,
014c,
02e2,
058e,
002f,
0291,
03d8,
fab2,
0837,
01c0,
041c,
0884,
025a,
034f,
06b7,
07ac,
00f0,
045c,
04fd,
ff69,
fbdf,
04a8,
0078,
0482,
0002,
ffae,
ffcd,
04f6,
0404,
0479,
fa3d,
016f,
fb2e,
fa0c,
fc91,
fea0,
f89f,
00e1,
fd21,
00b1,
fcaf,
fca4,
0368,
02d7,
0400,
0127,
0559,
016f,
ff96,
03e0,
02b8,
ffa0,
fb56,
fd76,
0190,
07aa,
06b1,
ffc4,
f945,
01a1,
fcfd,
fee7,
fc1c,
0229,
fff1,
0081,
fe5f,
fe69,
fdef,
f947,
f8d4,
fdb7,
04d5,
057a,
fd82,
00a5,
0078,
0465,
ff24,
022f,
ffde,
feec,
fd8d,
07b0,
06da,
ff94,
ff72,
fe72,
ff61,
fb2f,
f9b5,
0157,
0107,
054c,
030d,
f6e1,
fb1d,
f7d6,
fb77,
01f6,
fd55,
fdd5,
fd0f,
fc70,
fce7,
fd18,
0163,
0420,
fba9,
ff84,
09a2,
0890,
094b,
03ce,
0124,
0470,
fa45,
f81c,
fa1f,
ff43,
fa0c,
fdf6,
fc7f,
fcb8,
f44a,
006e,
fb45,
f765,
fc14,
fedf,
fc40,
03c9,
01b1,
03cb,
fd39,
01f2,
fe57,
0247,
0763,
053a,
044d,
031a,
079f,
fe32,
f9c5,
fa09,
f60d,
fabc,
f6db,
fb6a,
019b,
f8ee,
f747,
fd0c,
fb48,
fb18,
ff7a,
0679,
fdb6,
fde1,
ff81,
013e,
027c,
ff57,
ffef,
fd6a,
0618,
00d9,
0637,
08cd,
04db,
0170,
fca0,
0228,
fb15,
fa10,
fd49,
fd14,
fe8c,
fc64,
f867,
01e9,
006f,
0795,
008a,
ff73,
fd1f,
fe03,
040a,
fc37,
02d3,
0291,
08f4,
01ac,
ffea,
06a4,
01bf,
043f,
ff73,
0336,
0aef,
0bb5,
089d,
feae,
fb81,
053c,
0890,
015c,
093d,
03e8,
0b3a,
02ca,
059b,
ff3d,
04f9,
041e,
042f,
fe70,
031b,
048f,
0738,
033b,
0228,
0d36,
0b80,
0770,
fabf,
fe13,
0082,
0430,
02b8,
0821,
029a,
024e,
fd14,
057c,
0663,
026d,
02f9,
04fc,
0329,
ff31,
046f,
fdae,
feb6,
0251,
039a,
ffba,
01a9,
066e,
fc79,
05ef,
0a76,
044f,
fce4,
0322,
fc12,
fc9f,
045c,
03a3,
fe7c,
f919,
01fa,
ff57,
008d,
050b,
01ea,
fd5e,
fe17,
ff9a,
ff03,
012c,
00d3,
feaf,
0328,
fdaa,
01d8,
fdc1,
0152,
044f,
06ca,
fece,
0372,
00ae,
0166,
fe66,
03c9,
048d,
fec7,
fc53,
01d8,
fd0c,
feb7,
fefd,
045c,
fe8d,
f79c,
fcf4,
ff07,
fd41,
0456,
00d5,
024b,
fbec,
fe83,
f68c,
0290,
fee1,
ff39,
0188,
0159,
fdae,
fa05,
fc41,
057c,
fe6b,
fc3f,
056e,
0159,
fa57,
01db,
06e5,
06d6,
04f5,
f9e6,
ff20,
feb0,
fe4c,
ff48,
032e,
fde7,
fc60,
0051,
f941,
fb73,
fe2f,
012c,
0304,
00f9,
faf5,
fcf2,
fa0b,
fef7,
06ea,
01db,
01b6,
fddc,
0109,
0153,
0359,
fe4c,
f8f0,
fb74,
fe1a,
fe24,
026e,
0365,
0477,
fd40,
fbb7,
f9bf,
f8f4,
ffe6,
fa74,
fe0c,
fd5d,
f861,
faed,
fdf0,
fd56,
017b,
0816,
06e3,
095a,
02c9,
fe93,
f987,
f90b,
0089,
fb62,
f9a0,
ff3f,
ff4e,
031d,
01be,
fc4a,
0089,
fb5a,
f9b3,
fe3f,
fd24,
fc76,
fd6f,
f63e,
0011,
fbfe,
f97e,
fec9,
03da,
03f2,
07a7,
0712,
fd7c,
fa59,
f8db,
f5bf,
fc51,
fdd9,
fb09,
fbb9,
03d4,
ffc3,
fcdb,
fd90,
04c8,
fcee,
ff9e,
0173,
fbe5,
0039,
ff18,
fa8b,
02b1,
019a,
f7cb,
f8c5,
fc39,
00c7,
02a4,
fee1,
fb01,
0287,
f646,
f9d3,
f70a,
ff45,
fc95,
fc63,
012b,
0021,
fbf2,
fd3d,
fd4a,
fb45,
fe8f,
fe48,
ff94,
fddf,
fe6b,
038b,
0093,
0037,
00a9,
fcd7,
00e5,
0234,
fdde,
03ed,
05b4,
02b4,
fc32,
f961,
fb66,
002a,
0296,
fe1c,
fbf9,
023f,
fec4,
ff29,
fd5a,
fb59,
01a4,
fd87,
00f8,
0138,
fd4b,
052a,
0100,
fe69,
011b,
0636,
07e8,
07cc,
fdba,
08af,
04c5,
fd9f,
fed6,
0824,
00bc,
fe69,
faac,
fc6a,
019d,
04bf,
fdf5,
022c,
0316,
00f5,
fccb,
02fd,
ff39,
face,
f924,
f963,
fe1b,
f988,
015e,
fe0b,
02d8,
07aa,
02e2,
ffd1,
fc2a,
fcf0,
ff24,
fd66,
fa4c,
f829,
feee,
febc,
00f5,
0119,
fe0c,
0032,
019e,
0323,
fce7,
002d,
fca9,
f3c1,
f601,
f2be,
f623,
f29c,
f8b0,
f8ec,
ff70,
026d,
040a,
00c4,
fac2,
fca2,
fe65,
fb69,
01b4,
fd5d,
fd3b,
fec4,
fc98,
042d,
0142,
0338,
005f,
0063,
fbf5,
fe90,
f971,
f9f0,
fcab,
fa21,
0017,
f9da,
f846,
fb1b,
f61f,
ff5f,
fc6d,
f844,
fe5d,
fdc6,
fbfd,
f926,
fe4d,
fc73,
ffe7,
03da,
0297,
ff2a,
045a,
03e2,
03ac,
fbf5,
0044,
fd26,
f9fc,
faf2,
fc35,
f9a4,
fffb,
01a8,
00bf,
0761,
02e3,
01bd,
0671,
0442,
08a3,
02e0,
0430,
fe12,
0205,
0314,
02ae,
fdad,
fd3e,
ff48,
ff4f,
fbd0,
ff12,
fe6c,
fea6,
fc70,
fec1,
ff8a,
01d0,
061a,
fed3,
035f,
feaf,
058e,
0632,
08c7,
044b,
0b07,
0883,
0326,
0104,
03db,
0470,
fc66,
04c0,
0069,
0126,
fe97,
0460,
000d,
feeb,
0116,
0262,
fd5e,
fc71,
fe93,
fd4e,
025c,
036f,
0247,
fe82,
0019,
fcf8,
01c7,
fdcb,
ffd3,
0569,
0158,
01d4,
fe06,
0247,
fe22,
0467,
fd09,
ff98,
0014,
fb08,
fc15,
fef6,
02a7,
fd5e,
0123,
fec5,
ff57,
fb04,
00c7,
fe9c,
fc3c,
010c,
0326,
fb7d,
fd6b,
fcbf,
020f,
fac1,
0356,
00fd,
faa3,
008d,
fffd,
fbce,
fc1b,
fcb2,
fc32,
0305,
0169,
fc6c,
fffc,
010e,
011e,
032b,
fd5b,
fc83,
fe1e,
fea0,
fc7a,
ff00,
00a4,
023e,
fc1e,
fd60,
fc02,
fed2,
ff37,
fdbd,
0056,
0263,
fb53,
fc1e,
face,
02d8,
ff53,
fc83,
fc36,
ffea,
fe9b,
026c,
0321,
faf7,
01a3,
011d,
fd70,
03ae,
02ed,
fd07,
f9c5,
fe36,
f96e,
0181,
fde6,
0150,
03e1,
0143,
fc91,
026f,
00cf,
0102,
ffb1,
fadf,
00b7,
004a,
fe7e,
fc16,
fd12,
fbb1,
ff1d,
022c,
fcf7,
04fb,
04cc,
01ec,
0531,
fb80,
fa85,
f3a3,
f93e,
f49d,
f373,
fefd,
faf0,
01f3,
fd33,
014a,
006e,
fc79,
fb7f,
03c4,
03a1,
01fb,
0199,
fde6,
ff5c,
ff1a,
00b0,
0577,
05eb,
0278,
002b,
0814,
09ad,
0575,
02e0,
0003,
0272,
fe02,
fece,
02b0,
0065,
0470,
013e,
06b7,
fe80,
01e0,
00ed,
ffc2,
fdcd,
0018,
fe02,
fccc,
0168,
fde0,
fc6d,
0468,
045a,
febd,
0493,
03ec,
09da,
0bae,
0303,
0057,
fd37,
0001,
019d,
03bf,
ff35,
017d,
02a7,
03bc,
037f,
0075,
0088,
0015,
ff1b,
fd94,
0260,
fd40,
03c3,
ff3d,
fe7e,
0490,
0976,
056f,
0d20,
04ed,
079e,
053b,
090b,
0543,
0d4e,
055a,
045e,
056e,
fe90,
fa76,
f908,
f7fd,
03fe,
fc21,
02f7,
fd98,
fc37,
0044,
fe2b,
0015,
ff84,
02a0,
07d8,
04c7,
086d,
0d66,
0828,
05b0,
05cc,
0a21,
0c86,
0b2d,
04f2,
0a18,
0316,
0540,
f821,
fdf6,
f943,
f81e,
fc1d,
f9a4,
ffd2,
015f,
fccb,
037e,
fd73,
ffb8,
0761,
0623,
01cd,
0351,
05f2,
03b2,
030f,
0323,
0a15,
0081,
092f,
0111,
0061,
fe85,
fb70,
01a8,
fa8b,
f92b,
f8a1,
f958,
f84c,
f8b5,
02a6,
0098,
01f1,
fafe,
01cf,
010a,
01b9,
079e,
0aa9,
0868,
03e2,
0431,
00b8,
04ee,
0121,
04c6,
fd0c,
02a1,
fc18,
fb33,
02e0,
fc89,
f596,
f859,
f90e,
f87f,
f582,
fa10,
fa59,
021a,
fd5f,
025d,
038a,
fe65,
0728,
0170,
0729,
0a6a,
0661,
fe23,
fee8,
fe03,
fe2d,
0055,
fdb6,
0321,
f9fc,
fd14,
002f,
05d3,
f7ab,
fb7c,
0183,
fbae,
f9c0,
fbbb,
0095,
0091,
feb7,
001f,
00f0,
fd14,
04c8,
085c,
0524,
07f5,
fd61,
f247,
f28d,
f6ec,
0396,
01e9,
031a,
0273,
03ce,
fc74,
0424,
fd5d,
f9a5,
f8d4,
fd9b,
f9fe,
ff9c,
fd1c,
fd81,
03c5,
ff34,
01a5,
016e,
fc61,
033c,
09c1,
06d6,
fc2d,
f9b2,
fcee,
f6ef,
fc3c,
0180,
fc80,
02df,
fc28,
fc5a,
fd19,
fffd,
f95c,
f6f2,
ff47,
ffb2,
fdc8,
0021,
f34a,
0048,
fb0b,
fce5,
fc11,
fc56,
fba5,
fc36,
fa28,
ffcf,
f679,
ff13,
fe0e,
fb2c,
fa9c,
fb19,
0406,
034e,
fb72,
f942,
faa9,
02ac,
01f6,
fa37,
fc2f,
0015,
08f1,
060f,
030e,
0024,
02bf,
fc5a,
fb1f,
fef7,
fd40,
01f9,
f864,
f325,
fc1e,
0209,
f659,
f880,
f8e9,
fcb1,
013a,
fc3b,
f9a3,
fc33,
fdb4,
0211,
00ab,
ff11,
ffc0,
05f3,
03fb,
09d8,
ff54,
0044,
fd5d,
febd,
032d,
02ca,
fe3b,
fda6,
f62a,
f1cd,
f5e3,
fa49,
f750,
fcd3,
fef3,
faa7,
fcc7,
fff9,
016e,
fe26,
0020,
0543,
fc46,
fb1f,
ff14,
0963,
06ac,
0924,
067c,
fe58,
ff43,
fd9e,
fdf4,
0120,
044b,
fbff,
f47a,
f006,
f04f,
f863,
f5dd,
f8ed,
fa5a,
f7d8,
ffe2,
ffb5,
fd3c,
fa24,
fed3,
0421,
0729,
05b9,
0141,
0386,
0b76,
0bcb,
07da,
ff9d,
fe34,
faee,
fe6f,
012b,
ff37,
00eb,
f38c,
f343,
f241,
f63b,
f92f,
f68c,
ed60,
f62b,
f160,
fabb,
f86f,
f4bc,
fac0,
042d,
0626,
0110,
fee6,
04bd,
05ba,
0395,
028e,
faa6,
fb33,
ff43,
0249,
01de,
ff75,
059e,
fef6,
f789,
f2e3,
f66e,
f6b4,
efbf,
eee0,
eec2,
f01b,
f370,
f821,
f774,
fcf5,
ffc7,
0341,
034f,
06c2,
061d,
02ee,
02ca,
0442,
fc0f,
fc14,
02df,
fae9,
037d,
fe32,
fe74,
0068,
014f,
fadb,
f747,
f780,
f416,
f314,
fb62,
f915,
f838,
f5f9,
fb33,
fa58,
fe76,
fe2b,
00dc,
02a6,
fbd1,
fdf8,
0301,
02fa,
03a4,
fc43,
0276,
021d,
fdd7,
0185,
04e2,
0184,
fb15,
fe8e,
fb90,
058e,
0113,
0268,
0198,
fcb3,
fe3e,
f93c,
fcda,
fffe,
fec7,
faa7,
ff35,
045d,
fb14,
f996,
0041,
027c,
00d3,
02a4,
fd1f,
fc0a,
0081,
0294,
fc17,
00ce,
fa0e,
f8f4,
fe5f,
0440,
0b4d,
0a44,
024d,
0488,
061f,
ff38,
0206,
008d,
00fe,
f5af,
f55c,
fd83,
fd16,
fa6a,
03ab,
04ae,
027a,
002e,
0184,
007c,
fcf1,
faef,
01b4,
0208,
fd87,
ff0f,
04cb,
011a,
0012,
0c17,
072f,
06a1,
07f4,
09e7,
076b,
ffc3,
fe09,
fb83,
f9ef,
ff85,
fb13,
0037,
0438,
04d0,
006e,
fb63,
fb7e,
00e2,
0230,
00ca,
010e,
04cd,
0bdb,
0b6f,
0e5e,
0bca,
05fb,
0472,
0fb9,
05e4,
057f,
0095,
043c,
f9d1,
fa93,
fa90,
faf7,
ff3a,
fd85,
fef0,
fc65,
03cf,
011b,
03a3,
0208,
fb09,
ffc6,
0259,
036d,
03ca,
0b46,
0f8b,
131f,
079a,
075b,
06b3,
02da,
ffda,
058e,
045d,
0032,
f643,
03f2,
fc63,
0331,
fe53,
fe66,
fd38,
03da,
0033,
fffd,
fe8f,
fb32,
fb51,
fccc,
02a6,
fbf5,
0406,
02bf,
0ee8,
089c,
0d80,
0cb0,
0e05,
051b,
06db,
048c,
05b7,
fc6e,
030c,
012d,
04eb,
0234,
03ad,
0183,
f9d7,
fffb,
00b9,
01ac,
ff22,
02b8,
fe5b,
fef8,
0070,
00fc,
fe66,
fd26,
00df,
ff32,
003b,
fd21,
0220,
015d,
0385,
032f,
0028,
fc83,
fd55,
0109,
0614,
0258,
ffb2,
03c3,
fd85,
017a,
01f5,
ffcb,
fc75,
fc57,
018e,
fc10,
fd29,
fd91,
02e5,
010c,
0228,
fc31,
01e6,
ff5b,
fb5a,
ffed,
0064,
ffac,
032d,
fdbb,
0062,
fe4a,
0260,
fd54,
feda,
0360,
fc62,
fea8,
0245,
01e4,
ff7f,
02a6,
0386,
0243,
fec7,
023c,
0327,
03bf,
015d,
03fa,
0088,
ff69,
ff51,
ff7f,
040d,
fdd8,
fe5b,
fe14,
fdaa,
fe5a,
025b,
fc3e,
fb8c,
fceb,
fec8,
fc94,
fd89,
fca8,
01d6,
fe8d,
fd82,
fe96,
fc06,
fcf6,
046a,
fe13,
01a0,
006c,
f977,
0208,
01f5,
fd5e,
fa8a,
0143,
0407,
0198,
ff51,
fb63,
fd31,
f9b4,
fef8,
0186,
facd,
fdfc,
fbdf,
040f,
fe04,
fc50,
00f8,
fd5b,
fcfc,
fbbc,
fde2,
fd4f,
0081,
fbd1,
f98b,
f9dc,
fed8,
fc91,
f9f6,
ffcf,
fae8,
fcce,
f6f4,
ffd4,
f99c,
ffaf,
fab7,
fac7,
f9cf,
fca7,
0224,
0373,
fbc1,
0190,
fbf0,
02d6,
0210,
fff6,
0046,
fb4e,
ff29,
f9c6,
f7fd,
f708,
ffe8,
fb28,
fc7d,
f28d,
f7ee,
f934,
f2f4,
f526,
fcf0,
fcea,
f8bc,
fba9,
faa0,
f993,
ff13,
fe95,
fe85,
0034,
024c,
fbee,
040c,
024a,
0045,
00ad,
fa96,
0289,
fcef,
f631,
f855,
fb79,
f659,
f54d,
f49f,
f85d,
f9b9,
f743,
f9f2,
fc6d,
f715,
0107,
0649,
fe24,
ffe4,
0646,
00bb,
ff0e,
fe57,
018e,
0090,
0331,
018c,
fbbf,
f706,
fee2,
0231,
fddc,
f476,
fbab,
fbf7,
f9f3,
f8c5,
fb83,
f932,
fd3a,
f98e,
fb4d,
fdca,
023a,
075f,
0537,
012d,
0248,
ff99,
fccc,
fb77,
0480,
fd67,
fe99,
feaa,
fbf2,
00fb,
fc90,
02c9,
029e,
f783,
fcfa,
f901,
fabe,
fa5a,
f862,
fc44,
fcb7,
018f,
0233,
04f6,
085a,
0bc4,
0bd1,
015e,
0147,
04d1,
fc1f,
0276,
fd15,
01a6,
0056,
fa7f,
fcff,
0347,
f94e,
fcec,
fc9a,
fb9c,
fa12,
00aa,
039b,
f9c8,
fd23,
fe1d,
0338,
fe6f,
fad0,
048e,
0126,
0922,
0519,
002c,
fde4,
083a,
fc9e,
fcda,
fec3,
019d,
fbcd,
fa07,
fdef,
00f6,
fd69,
fb76,
0148,
fc3c,
030a,
ff09,
fe44,
fb93,
fe28,
fa73,
fee3,
fbdb,
fbcd,
fdf6,
03b0,
ff38,
00a8,
0403,
02db,
fe03,
fdb1,
fdb9,
026c,
0327,
fd87,
ffef,
fc89,
ff1d,
fd71,
fa55,
04ba,
0212,
ff8c,
05a2,
fff3,
00fa,
01b8,
ff63,
0199,
03aa,
f99a,
f8e2,
ffe3,
fb2d,
ff53,
ff9e,
0144,
0450,
fcfc,
021b,
ff8e,
ff69,
f97d,
faad,
fddd,
0206,
00f0,
05e2,
0608,
04a0,
0061,
01c1,
fe44,
f944,
ff7e,
fb18,
fd8e,
fe33,
051c,
0011,
fe39,
fa30,
f9cc,
fe4a,
0052,
0286,
fdf4,
043e,
febc,
fe4e,
fcf8,
fa0a,
0323,
072e,
01c8,
0745,
0699,
023d,
038d,
fdcc,
ffb0,
fd4d,
fd36,
fdae,
feb6,
fe1c,
04f7,
025d,
01ef,
020b,
fcdd,
f914,
0427,
fc1d,
fd86,
fdf1,
00e3,
ff64,
fdce,
fb80,
0175,
0631,
06fc,
05ee,
fda6,
fc54,
01f0,
fd3b,
0040,
f94b,
0162,
f9ff,
01e2,
044f,
0348,
fa95,
fd6a,
ff14,
f7dd,
f909,
fd1d,
0402,
0334,
00f8,
fba0,
0448,
fd2e,
fcc6,
0056,
0157,
0e13,
088e,
fa8d,
00f0,
fda9,
fe4a,
fcc7,
fe96,
fd12,
fddf,
0477,
04e8,
fa6d,
019f,
0087,
f84f,
ea72,
fafb,
fcd5,
fcef,
04b7,
01ec,
ff57,
fbc3,
0409,
01b8,
fea7,
fc18,
0364,
0867,
ff70,
ff07,
fa16,
f882,
fa69,
fe04,
00e2,
02f3,
ff26,
0204,
fdaf,
0167,
f91a,
f585,
f1ed,
f6d9,
fea2,
fcd6,
034c,
fccc,
fefc,
0127,
044b,
07cd,
0538,
046b,
fdd3,
06eb,
05eb,
ff89,
fa97,
fa32,
fc18,
fb1d,
0037,
feac,
04a8,
01d6,
004a,
ff6b,
faea,
003c,
f4c2,
f9e7,
f8ab,
0195,
00ef,
0098,
fdde,
015e,
027e,
01b6,
09a0,
07d0,
02b2,
0084,
0504,
0341,
01e9,
0680,
ff6c,
fe77,
00ac,
fe54,
f950,
fc76,
f985,
0598,
05d0,
fce7,
f7fe,
f237,
fa36,
fc59,
fef0,
fc34,
0443,
fbb8,
ff1e,
04e4,
00f0,
00ed,
03c8,
0743,
0473,
0c4c,
090e,
0669,
ffef,
06c4,
027e,
fef1,
ffeb,
02f8,
004c,
fa89,
fb2d,
f83b,
f906,
f9b3,
f780,
fdc3,
fca7,
0207,
040d,
0257,
00b2,
ffd6,
004f,
f90b,
045c,
0880,
04c1,
0325,
0901,
0074,
0371,
0992,
01a8,
fa17,
fdb0,
fed5,
fb55,
ff7d,
ff68,
f810,
f736,
f675,
fb6c,
fcf0,
0211,
fdc7,
fb86,
fc3d,
fb9c,
f3a1,
f904,
f254,
fe17,
fc79,
f930,
f497,
f6ab,
fbc6,
febb,
050d,
0025,
fd67,
f75b,
fb8a,
fd38,
f5d6,
f872,
fcf8,
fde7,
ff30,
fba0,
fee9,
fed7,
fd15,
002c,
fd24,
fde0,
f870,
f6c8,
f406,
efee,
ec16,
eb1c,
eb80,
ee11,
f2fe,
fbb7,
fbf4,
fc23,
fed2,
ff39,
fc5b,
0094,
f6c1,
f92d,
fc7a,
ff28,
03a7,
0219,
03ee,
fc7c,
03af,
035c,
fe31,
fe60,
fd71,
fd6e,
f6ad,
f084,
edb6,
f1fc,
ee7d,
f285,
f5ee,
fa33,
fc51,
f950,
00fc,
ffd3,
fb06,
fbd1,
fb05,
0827,
003e,
0658,
0601,
0357,
fc23,
00a4,
feb3,
03a6,
020a,
00b5,
fe0f,
f891,
f817,
f396,
f9f3,
fb95,
f7c3,
f950,
f8b9,
008f,
0314,
f957,
f942,
fef3,
f7f4,
f882,
fc6c,
046e,
074c,
027a,
0383,
017f,
fda3,
0415,
0022,
fe4c,
02dd,
feed,
fc34,
fc28,
01c1,
03a1,
f9e7,
fd50,
fb7c,
ff2b,
fa50,
0398,
fa7e,
fd60,
ffdc,
03a3,
fafb,
0399,
fdd6,
029d,
026c,
ff3e,
00f7,
011c,
fd9f,
fbd4,
0361,
fe33,
fed6,
0226,
fc8d,
008b,
fc0c,
021a,
fdb3,
fca2,
fcbd,
0704,
01eb,
04c6,
fff6,
f923,
fa54,
fd56,
03c9,
068c,
09f4,
0132,
05ad,
047b,
ff06,
0413,
fe82,
00a9,
fd33,
fe78,
0035,
0264,
020a,
ff68,
faca,
fcc4,
f899,
fda4,
f905,
fcf0,
01b8,
fc46,
0632,
03bc,
0584,
ff0c,
0519,
0047,
fffd,
0568,
fe5a,
02c1,
0083,
fcb2,
0444,
008e,
fbe4,
0487,
febb,
0196,
fca3,
fc78,
021b,
0552,
0194,
038a,
0003,
fe2a,
0509,
0218,
081c,
05a4,
ff4a,
05ab,
fd43,
0110,
fe59,
05e7,
04d5,
ff7d,
0342,
fe34,
ff94,
fc5f,
00b5,
fbae,
0119,
01f0,
fc67,
01ec,
fdfe,
00a2,
fd58,
00a2,
fd5a,
049a,
0236,
fe7a,
0082,
009b,
fd8e,
035e,
028e,
0243,
fe8c,
fca0,
00a3,
ffc0,
0330,
fbff,
fc0c,
ff51,
fd5b,
0387,
01af,
fc14,
fd89,
0437,
fc15,
ffac,
fd1d,
ff86,
feaa,
ffe2,
0263,
fb67,
fc81,
fece,
ff4b,
fc8e,
ff9d,
fc40,
fd53,
00d7,
03a0,
fef2,
fcb0,
ff63,
fdc3,
044d,
fe68,
03ec,
006c,
019d,
ff26,
fe3a,
0251,
fedd,
ff06,
0082,
02a1,
fe99,
fc7f,
00c7,
01b5,
fe24,
fe5b,
03a1,
fd04,
0408,
02aa,
0183,
0436,
ff06,
ff72,
0118,
fcc7,
fd97,
fd44,
0204,
fc69,
0300,
fd9f,
fe89,
fef7,
007c,
0290,
021f,
ff98,
0021,
0208,
00b5,
04cb,
feb9,
02d1,
ffcc,
06d3,
ff81,
fca1,
fefd,
02e3,
02a2,
0121,
01a6,
0429,
fb77,
011f,
ff4b,
fce7,
fb8c,
0427,
fefb,
009e,
fddf,
009e,
0597,
0475,
0a84,
09b2,
0309,
02e7,
0473,
05ac,
fbc7,
02a0,
fca7,
ffdd,
022c,
04f2,
02c3,
0101,
ff18,
02b3,
ff84,
03fe,
ff1e,
fda7,
ff39,
0078,
fce4,
fe9e,
ff53,
0105,
018d,
06bf,
079b,
0989,
02ca,
ffb7,
f932,
fb4a,
ff0f,
054e,
005e,
05aa,
0749,
ffc6,
fd72,
fc35,
ff61,
03ac,
fd3b,
fb75,
00a5,
0195,
0231,
fdeb,
fb97,
f7ae,
f8ef,
fbbe,
0186,
fca3,
01c5,
01ec,
fcb9,
fc9e,
00c4,
0638,
0159,
08b5,
00f2,
04f7,
02d6,
fa3a,
feb1,
f891,
0153,
0439,
0121,
feb6,
fec2,
0024,
fcbb,
f8e7,
f649,
f35f,
f351,
f83b,
f851,
000d,
036d,
023d,
ff18,
0a7e,
0a11,
1036,
0951,
0ea5,
026b,
fdd3,
febe,
f900,
f3f3,
fef9,
016f,
fd97,
fcb5,
0128,
fcc4,
049d,
fdfb,
f6d4,
f7bf,
f30b,
fce6,
fdbe,
0088,
0156,
ff08,
fb54,
020d,
05f9,
0b22,
0a02,
062a,
0697,
fc40,
fed3,
fb6e,
f265,
edd3,
f935,
00d3,
0005,
fcbc,
fecc,
0044,
fbc4,
ff33,
f766,
fa50,
fc6f,
fcb0,
0094,
fe95,
03a1,
0474,
fda0,
f9c2,
ff81,
0096,
ff93,
fd08,
fc11,
ffca,
fb46,
f818,
f08e,
f0d4,
fce1,
fa3a,
01b2,
fcab,
fc2e,
01f4,
01c2,
ff21,
feaa,
f9f7,
fcda,
02f8,
0015,
fda2,
05cb,
fe3e,
fd6f,
fc3d,
f54c,
f519,
ed4a,
f509,
fb63,
fefc,
fba1,
f045,
ef5e,
f1b6,
f744,
013c,
fd62,
ff72,
038f,
03c2,
fe10,
ff6f,
fd3c,
0359,
0c2a,
0660,
fde6,
01cb,
fde8,
02e3,
f7bd,
f355,
ed99,
ed97,
eb43,
f7ad,
fd52,
0290,
f856,
f639,
efba,
fb99,
fd60,
032c,
01d6,
03f0,
0358,
fcb4,
0242,
ffd9,
0192,
08f2,
0bb5,
01e5,
0660,
fe2f,
02ba,
feb8,
f354,
ee18,
f150,
eeeb,
f37b,
fbfe,
0032,
01a4,
fd48,
fd87,
f7cf,
fc4f,
00a1,
04e5,
fedc,
fae9,
fbf6,
fe66,
fefd,
faf3,
0708,
05ea,
036e,
0553,
ff2c,
fe30,
fda5,
fc9a,
f3d6,
f033,
fe36,
f6b2,
fb90,
fd73,
fa21,
0230,
0103,
fa93,
fb32,
fd59,
00c8,
fcc7,
02f2,
007e,
fd38,
0020,
02ce,
04d5,
0509,
fa65,
f9ad,
ff6f,
fa09,
0441,
010e,
fca3,
0005,
fe8e,
046a,
01d4,
05b5,
018d,
ff2d,
fe76,
0320,
0326,
fe88,
0087,
0264,
ffd3,
022c,
ff11,
fb96,
035f,
fbc7,
00f7,
00db,
f488,
f92a,
f9c6,
f7f2,
fd02,
036e,
077f,
0506,
0415,
085a,
04e1,
067c,
fb41,
0189,
fdc4,
0653,
0180,
ffab,
f9b6,
fa7b,
042d,
0187,
ffc4,
ff32,
fffc,
fbfa,
fc9d,
02db,
f9b8,
00b6,
fef5,
fb5a,
fabb,
0595,
0478,
02b8,
01a2,
fedd,
06b2,
00df,
ff10,
0288,
05ce,
09e0,
02a5,
f802,
fd82,
02a0,
03d2,
fa46,
0041,
0232,
0348,
02ca,
fb56,
fc8e,
fe89,
0377,
0275,
fff7,
044f,
ffaf,
07f4,
03a3,
0382,
fe3e,
04a7,
fe25,
0641,
fee3,
036f,
04e8,
0792,
02ba,
02cf,
fec9,
0955,
04f2,
01da,
fca8,
fe26,
fd7c,
0496,
ff95,
00b2,
0145,
011f,
ff4c,
fd5f,
01f8,
ffc8,
0313,
ff5c,
fb50,
0549,
04da,
fea3,
fdc3,
ff1f,
050b,
032c,
024b,
fe3e,
fef1,
0ac0,
fdad,
00e0,
fe84,
0153,
fe23,
0096,
02b7,
0033,
07a4,
029f,
0680,
010b,
04a7,
006e,
057e,
02d3,
ff0b,
03b7,
0161,
04d2,
ffd6,
076e,
05db,
03db,
0826,
094e,
08bd,
041a,
032c,
0357,
fdda,
fc0f,
ff6f,
0031,
01eb,
0031,
ff45,
0199,
fece,
0211,
0615,
0ac9,
0849,
05aa,
025b,
0559,
014f,
0243,
050c,
02b6,
05c9,
057b,
0a13,
0b22,
02e4,
034d,
00c0,
0003,
fd43,
0152,
febb,
037d,
0157,
047d,
f839,
f77b,
0197,
0107,
020e,
00b8,
ffe8,
035f,
fbfa,
fd60,
01a9,
fd26,
faa6,
fff2,
0150,
fe17,
0919,
08ce,
0879,
03bd,
0478,
fc4d,
fd91,
0002,
fde1,
ff9a,
ff9b,
004e,
fae1,
fb9e,
f7ea,
03c1,
fbc3,
fe1e,
04bc,
0409,
ff9f,
ff3c,
fb34,
023c,
fcf9,
ff6b,
021f,
05d8,
054b,
0826,
056e,
0267,
02b1,
fc52,
ff24,
0410,
fed6,
013e,
ff17,
fa54,
fe8e,
fb9f,
ff7f,
029d,
ffe7,
0381,
0396,
ffee,
00f0,
f5b0,
fb11,
02ce,
f7bc,
fa55,
fd13,
fe7f,
03a8,
037e,
078b,
02bd,
ffcd,
03fa,
fdc2,
fff4,
fb7a,
0374,
fa72,
fd91,
f785,
f7e8,
f8b8,
fe96,
f72f,
fcb0,
fdd6,
fb62,
fc49,
fdc5,
fed4,
f73c,
f323,
fac5,
002b,
ff0e,
0813,
0843,
013d,
fdcf,
0094,
fcd0,
018b,
0255,
fe1c,
fd4e,
fa08,
fb3a,
fd10,
fb58,
004d,
0231,
fcc9,
fc84,
0252,
0218,
fac5,
fd3f,
fd91,
00e4,
fe22,
feb2,
0054,
01eb,
040f,
09c4,
ffbe,
03cc,
fbec,
fe6f,
fe5c,
fddc,
0172,
0257,
ff08,
02f6,
ffab,
0335,
ff04,
0305,
0345,
0105,
0207,
0282,
02b9,
02af,
031c,
ff39,
0494,
02e0,
0372,
0509,
05d8,
0338,
0208,
fc8d,
010e,
020d,
00cc,
00cf,
fd9b,
fc8c,
00a4,
fb8b,
03f4,
fee5,
ff62,
018c,
02fa,
01d5,
026f,
05c9,
04ad,
0783,
016b,
06f2,
02c1,
0859,
01bc,
ffd5,
04f2,
ffe5,
0228,
0195,
fede,
ff5f,
ff7b,
fcd3,
0016,
fd8b,
fef8,
fcbf,
00c0,
fe9a,
005e,
fcf4,
ff92,
fed9,
fea6,
fcf6,
02bb,
005e,
fbbe,
fd29,
0319,
0465,
ff14,
fc35,
fdc6,
fe13,
03f3,
ffab,
0246,
fcb2,
fafe,
0121,
fe91,
fcf7,
fbb2,
ffd3,
fe2a,
fde8,
fe6c,
00ec,
fb54,
fce3,
01f0,
0065,
fd75,
fd2c,
fd30,
fc0d,
0202,
ff5b,
0005,
fd7f,
0110,
ff0e,
01a8,
ff36,
027c,
01a1,
ff43,
fae9,
00ad,
fce5,
ff8f,
fc89,
ff96,
02c1,
000a,
fdf2,
fc54,
fcca,
fb70,
0191,
ffba,
fdf0,
0191,
fcd1,
02bc,
ffca,
fc77,
00f0,
fbe4,
fdfd,
0125,
fb33,
00d5,
fbee,
fe7f,
fd35,
0013,
fcc0,
fdad,
01a8,
ffc2,
ff4f,
04a5,
03bc,
ff8f,
fff0,
01aa,
fe36,
038b,
faba,
0020,
0103,
02e2,
fa51,
0210,
fe21,
fc1b,
ffbb,
fbae,
02df,
fb8d,
fb79,
fb76,
fc72,
03b0,
fc1e,
012b,
041e,
00d3,
fd90,
0281,
fe21,
052c,
036e,
0019,
fce6,
0302,
0539,
005b,
ff18,
fdde,
ff4a,
fea2,
02dc,
024d,
04f9,
fd6e,
fab0,
0303,
fb84,
fae5,
fec6,
00e2,
fb9f,
00a6,
0175,
ff05,
0822,
05f4,
0762,
0a09,
02ff,
0369,
fba2,
fcdb,
047f,
09b4,
0110,
fd3d,
0141,
0075,
0844,
ffcc,
075e,
00e6,
fc55,
00ed,
0113,
0130,
0160,
026e,
fb9c,
0618,
059e,
099b,
0a2e,
0195,
0216,
0453,
f778,
f7c8,
f9c3,
fbc0,
ff67,
fecb,
0472,
03b3,
0a0c,
01c7,
0748,
0864,
070d,
074f,
fc88,
faec,
fd67,
00fa,
0062,
ff80,
019c,
0172,
0751,
0c5c,
0032,
0493,
fae0,
f518,
f561,
f33b,
f2c9,
f355,
f455,
f768,
fdaf,
faf1,
06b9,
0302,
fffb,
fe0e,
03ef,
fffb,
fc68,
01bd,
011d,
036b,
01fa,
01ae,
016a,
07e1,
1017,
0747,
011a,
fd56,
f83f,
f609,
f8a9,
f8d3,
f995,
f3f4,
f636,
fa9c,
fcbc,
f637,
fc26,
041f,
0188,
00dc,
fca8,
0009,
027a,
fd2d,
feab,
fa5c,
006f,
0286,
fe18,
0511,
0393,
fb67,
006d,
f8a4,
f99b,
fbde,
faf0,
f843,
01f6,
fe97,
fdae,
fe3a,
fed7,
fce0,
fd58,
0524,
02bb,
f9e4,
fda1,
f970,
fe65,
02d9,
fceb,
014d,
00c9,
fdaf,
feb1,
ff4c,
ff15,
f684,
006c,
fa22,
fbca,
f9bc,
f865,
fe14,
fd5f,
fa50,
00ed,
fe4c,
0104,
fc82,
0606,
03b4,
fc56,
f9f3,
f4d6,
fa20,
fb1e,
fd59,
0025,
fc30,
0078,
fa47,
001a,
fad3,
0154,
f678,
f985,
005d,
fd6d,
fda9,
ffe9,
02c9,
f516,
f7f6,
f943,
fd48,
03b4,
0186,
023d,
002b,
ffe0,
f7e1,
f02e,
f31b,
fcd2,
0133,
007c,
01aa,
ffc1,
f860,
fc8a,
fcc5,
02d6,
fe63,
03d5,
04e5,
0a14,
00b2,
03b4,
0069,
f6e0,
f901,
fa66,
ff18,
fb91,
fd42,
0175,
f69a,
f5e7,
eccb,
edb2,
fa50,
fcca,
fd27,
fab2,
02fd,
fd54,
01a5,
f9dc,
fcdc,
ff1d,
0689,
0726,
05c2,
0304,
08d1,
0b1a,
012a,
ffd2,
fe8b,
0286,
02cd,
0026,
fae6,
fea4,
f234,
f3db,
f71a,
f842,
f77e,
fec3,
fb42,
01b7,
0197,
faba,
fabe,
fdb3,
017a,
0591,
06ff,
0912,
0729,
0354,
030b,
06c8,
0840,
028a,
0148,
0872,
03a3,
06bb,
fe21,
fc50,
f921,
f926,
fcf5,
fbb7,
f62c,
fea8,
032d,
feee,
fc54,
ffc2,
0162,
fd56,
fd6c,
0599,
04d8,
02a9,
09f7,
03b2,
07fa,
0752,
0280,
0e95,
0c41,
0825,
03d5,
0587,
f6d8,
fc7d,
f691,
fb0f,
fb63,
fd84,
fca3,
0149,
ff98,
02d2,
fdd2,
fb4a,
0252,
fee6,
06b9,
ff57,
05fa,
04a4,
07fe,
fdc2,
ff71,
022f,
055d,
0d64,
0792,
0770,
0949,
ff8c,
f96a,
f765,
f57d,
01aa,
07de,
0514,
00c6,
fde3,
fa86,
fea3,
fd32,
00de,
ff72,
0288,
0567,
ffe1,
0400,
0a4a,
01d6,
0125,
02ce,
0454,
0975,
0449,
019f,
0034,
fda4,
fa03,
fcc1,
fbef,
f911,
01b5,
0b71,
08b0,
0849,
0aea,
fd0c,
fe7e,
fd5d,
003e,
fe2a,
fd9c,
0564,
fe50,
0127,
056f,
052a,
0571,
0209,
00ea,
fe63,
0556,
0380,
0231,
fe8a,
f8b7,
f97d,
00c1,
fb28,
064d,
00c6,
079c,
058d,
0454,
040f,
02ae,
fdd8,
feff,
00b3,
0475,
025b,
fbdc,
ffb9,
0644,
ff05,
0377,
0309,
fcd7,
077b,
03fe,
000c,
f8e6,
fc10,
f87e,
f8e5,
fe86,
0643,
00f4,
fd89,
07fc,
ff46,
0220,
fa31,
fd0a,
0221,
fa3a,
fcc0,
00a4,
fdea,
005b,
0221,
fc32,
f7f0,
01d4,
05cf,
0459,
f9c8,
f78a,
f81b,
ff08,
fa13,
f8cd,
fba0,
06a3,
0c56,
04ae,
0384,
0272,
00be,
03ba,
ffb6,
0147,
fe3f,
0055,
0018,
011c,
f880,
f6d5,
f941,
f98d,
f74c,
fb31,
0429,
ff5a,
fcf9,
f174,
fb1b,
02d7,
0332,
0473,
05c0,
0948,
0d0f,
037e,
fdf6,
fc7f,
02ec,
ffcc,
ff54,
ff98,
fd23,
ff2d,
0269,
fc88,
fa16,
f651,
f632,
f98e,
f638,
ffc3,
fd20,
fd75,
ffa8,
f973,
00ea,
01f2,
03a5,
04da,
06ba,
0b40,
0e21,
05a1,
01ff,
024c,
ffda,
00ec,
027e,
fec6,
0338,
fc34,
fe73,
ff68,
0189,
f9aa,
fd21,
f92a,
f619,
f796,
01e2,
fe2c,
fdf2,
0198,
fe22,
ff65,
041a,
ff2c,
06a4,
0db6,
0a84,
0885,
0098,
00f1,
fad4,
011f,
00f5,
fb98,
fe43,
0176,
0126,
fdb0,
fe2a,
fc19,
fdd4,
fe6a,
fb98,
fd98,
fd13,
fdd5,
0303,
fd59,
fe29,
f994,
fa89,
f63e,
014b,
08a6,
09c6,
0413,
0302,
0274,
021b,
fa2d,
feee,
fcd0,
fcc6,
0386,
03b2,
fb7d,
febb,
fba3,
f83f,
fc6b,
fcbf,
0450,
0161,
fae8,
fcec,
fc8e,
fcf1,
fa0f,
f8aa,
fadc,
ff43,
054a,
ff1e,
04e4,
fdc9,
fced,
01a9,
fbb6,
fadd,
fee7,
03be,
0057,
fb72,
03af,
fe2b,
f8aa,
f7b2,
f6bf,
fd29,
fe1f,
fab4,
f462,
febe,
fbb0,
fa0d,
fdcd,
fc55,
f71b,
f412,
f5c8,
fba0,
00bf,
fe8e,
fdee,
0444,
0058,
02e3,
ff6f,
02b6,
00ba,
fb23,
0281,
fdd8,
ffb7,
fbea,
fe87,
fe29,
f98a,
f78e,
f74f,
fa1e,
f440,
f6d5,
ffed,
ff57,
f9ce,
fc3d,
f760,
f4ab,
fdf2,
ff90,
01d6,
0375,
fc87,
fcfc,
fad9,
0162,
fc52,
03a1,
01a1,
fdaf,
ff33,
fe7b,
fd1c,
fdf1,
014b,
01ed,
fd21,
fe91,
024b,
021e,
015e,
024e,
0209,
fc4d,
fb47,
fc0f,
0157,
fce7,
03b2,
fb9f,
027b,
021e,
feb1,
02dd,
faa7,
fff8,
028f,
01f4,
fe60,
ff8d,
ff3f,
fe3b,
fb87,
0325,
ffeb,
00e1,
ffcb,
fed0,
01de,
fffb,
fb1e,
fcd7,
01d1,
01cd,
fc3f,
ff6e,
00bd,
fd9a,
00df,
ff0b,
ff87,
00ae,
fe63,
ffc4,
0024,
020e,
fd67,
fe0e,
03ca,
0359,
02fe,
fbb6,
018d,
031d,
ffca,
008e,
0103,
01df,
fc5c,
fc23,
fdc2,
fe30,
03c5,
ff07,
ff5f,
fcb5,
008a,
ff14,
02dd,
fcf5,
fc67,
fce7,
fc5e,
feeb,
01c2,
ff45,
fc79,
fe4e,
ff4c,
02b3,
ffcc,
03e2,
050c,
0046,
0ab4,
0a5c,
05b5,
02d4,
0219,
fe21,
01d5,
00a7,
02cd,
fd10,
fce6,
0342,
004a,
0317,
fcf9,
0148,
ffd8,
0098,
02ac,
fb5a,
fb7c,
fcb8,
fb8d,
f57a,
f392,
fad6,
fc84,
01bb,
0465,
0f02,
0b11,
048b,
052b,
0011,
0386,
f790,
f753,
fa85,
ff28,
ffb1,
00b4,
feb1,
0125,
ff46,
01e8,
0375,
febd,
feb6,
fad8,
f80e,
0044,
00a1,
f89e,
fd4a,
ff97,
fea6,
0850,
0393,
ffdc,
fbb8,
fca4,
fffe,
ff7c,
fc4c,
fb24,
f5fa,
00bd,
fd42,
fc1d,
02fd,
fc35,
025b,
0131,
fadb,
fee2,
f989,
f393,
f952,
f807,
ff04,
fbf6,
f9b2,
084d,
05c5,
0862,
ffa6,
0281,
fb97,
00e7,
0010,
fd74,
fab0,
0755,
fa94,
fdd9,
0313,
fc88,
fecb,
0128,
fd4f,
fe5e,
f89e,
fb96,
f922,
f04a,
f460,
f341,
ff10,
fec4,
ff92,
02b1,
03ad,
0643,
fbe8,
0514,
01c5,
0834,
0954,
040b,
0415,
fd96,
0469,
03e3,
025e,
fb7f,
02c8,
fd00,
004c,
fc40,
fde1,
fc30,
fab0,
fac7,
f2a7,
fe7b,
0656,
fd7d,
02d2,
0066,
038c,
080e,
01f0,
01f2,
ffc3,
ff15,
0646,
0621,
03fd,
fa55,
fd57,
ffee,
0269,
0205,
00d1,
fc6a,
fccf,
ffca,
fd62,
fd17,
fc3b,
f981,
f8c9,
0539,
fc63,
0087,
0125,
ffb9,
ffe8,
fe1b,
fde3,
f21f,
fc19,
f9e5,
fbeb,
fcdc,
f80f,
fecd,
fe45,
fb5e,
fc8f,
0235,
ff81,
fc49,
fd51,
fcc7,
fa15,
f84b,
0108,
0248,
038c,
014d,
fdc2,
fc31,
f8cd,
0168,
043a,
f36a,
e4f4,
e528,
eb9d,
f01d,
f88e,
f9d1,
f949,
fbc4,
fdd0,
010a,
ffa2,
fad2,
0096,
fd2a,
01d1,
ff55,
fa13,
f8a6,
f834,
f950,
076c,
01a7,
fe8c,
fa5b,
0313,
0473,
f79a,
f01a,
e9b7,
ef8e,
f1ee,
f386,
f2ba,
f3be,
fcef,
ff0e,
01b2,
022b,
fe49,
0396,
fe3e,
0276,
fed6,
fd3b,
f927,
fc9a,
f541,
fc4d,
f965,
fb54,
f641,
fdab,
0092,
fc93,
f8b3,
f18d,
f7e1,
f962,
f601,
f59d,
f406,
f30c,
fa4a,
feae,
faee,
fe72,
01c7,
023d,
fdc2,
00e5,
0066,
fec5,
fcc2,
fd6b,
fb1d,
fcd6,
0097,
01b1,
f81c,
0214,
0150,
005c,
fb89,
f88a,
f7ae,
fadf,
f5e8,
f437,
ee99,
f7d6,
0116,
035b,
0126,
fff4,
fe74,
02fd,
01b1,
fb1f,
fa62,
ffec,
fb8a,
fd4e,
01ec,
fd10,
0046,
0614,
fac0,
fee8,
fe91,
f4dc,
fdca,
fe38,
f815,
f3e1,
ee26,
f5c6,
f561,
f6b5,
0167,
0747,
fd13,
fa03,
fb36,
fa80,
fffa,
fc05,
00f0,
fb23,
f9e1,
fd1d,
03dd,
0597,
01a0,
067a,
fe11,
ff2f,
f5aa,
eeee,
f812,
f73c,
f880,
f728,
fb80,
001d,
fd24,
f95e,
01e4,
0159,
034a,
fee5,
0036,
fced,
0183,
fc85,
0096,
0035,
fc93,
07d0,
0756,
01c8,
ff11,
fd43,
fa78,
fa21,
fcbf,
f8f7,
fcfe,
fbf5,
fb8a,
f3a7,
0278,
fd60,
fed8,
fe3b,
fa20,
0532,
02ab,
0016,
fda8,
012a,
fd62,
fcd3,
02d1,
fb35,
010a,
fe1b,
f991,
0380,
02ef,
ff62,
f607,
004d,
fd48,
fae7,
009d,
fa2a,
f351,
f6ed,
fa2e,
029e,
fc60,
fbd2,
fe93,
003e,
04c3,
ff70,
00fe,
fdbb,
00a3,
0029,
fcba,
01ca,
fc2e,
ffd6,
fec5,
ff78,
013a,
f399,
f7a3,
f0ba,
efae,
fb03,
0534,
f779,
f47b,
f3a0,
fbe8,
00eb,
0078,
fe2a,
0291,
0477,
0071,
fc32,
fbb6,
fb34,
fb71,
02cc,
fb8b,
fdf0,
00ca,
fa04,
015e,
03c3,
00fa,
f72c,
ecce,
f1b1,
f52b,
f8f9,
fce2,
faac,
f2e3,
fc78,
fac9,
0219,
fcd0,
0351,
0441,
fa1c,
f725,
ffe3,
fa61,
fef2,
003d,
fcac,
ff6a,
0056,
0189,
fcf4,
ffc8,
ff99,
0473,
faf7,
f7ef,
fb2e,
f640,
f81f,
fcba,
fefa,
fced,
fd11,
fd6c,
0327,
056b,
093a,
0538,
ff19,
02b9,
fff7,
ff05,
fdbc,
036a,
fd43,
fef3,
018c,
04e7,
00f4,
fa01,
0282,
053e,
0880,
f7f9,
fc06,
fe55,
0501,
001b,
0250,
ffaf,
fd79,
030b,
0507,
09b6,
073e,
08d1,
febb,
0292,
fddd,
014e,
fdaf,
fac9,
ffd9,
fd3a,
fd8b,
0190,
0191,
0345,
0481,
0373,
ffa2,
04d2,
0127,
00fd,
0786,
0ce0,
0642,
034a,
fc57,
0385,
0b38,
1301,
0753,
005b,
03ca,
00de,
01fb,
fe62,
fc86,
ff21,
fdbe,
0089,
fcd6,
072b,
045e,
ff71,
000a,
00cf,
ff1f,
0302,
0c92,
07ef,
04e3,
0a2e,
064b,
034f,
00ac,
fff5,
04e0,
0341,
fcaf,
00cb,
fc7e,
fc43,
fb6d,
0289,
fad4,
01cd,
fea8,
fee8,
fedc,
0299,
03ed,
04eb,
fb1e,
ffc9,
004f,
0454,
0688,
03f9,
056e,
060f,
07e6,
fe7f,
f92f,
fab4,
017e,
04f2,
fb46,
0122,
fcad,
ffba,
fe55,
01d0,
0279,
0229,
024b,
fde8,
fda2,
00c2,
fed9,
fec8,
07de,
0303,
015e,
0057,
03a3,
ff23,
ff3f,
0205,
02fb,
f85c,
fbc4,
f7ec,
f794,
fafd,
f743,
fde3,
fd89,
ffea,
02f4,
fbb4,
fac6,
00ad,
fb7e,
fcdf,
0113,
fa46,
ff64,
0124,
01b7,
fbb6,
fd3c,
fe67,
fdbe,
fe25,
febf,
f97f,
fb73,
f511,
f8a1,
fd37,
00e2,
02a7,
fe4d,
0501,
fcc4,
00ac,
fddd,
fec6,
fb27,
0052,
0234,
ff29,
faf7,
00e4,
fe04,
facc,
fe50,
01b5,
faa1,
fb1a,
fb59,
fed1,
fc9d,
032e,
00c1,
fdeb,
0117,
fc3c,
0063,
fff3,
ff28,
fc5e,
fabb,
fc0b,
fe60,
0066,
fe0c,
034d,
fdd5,
0183,
034a,
fc69,
01fd,
0286,
fd30,
fd70,
fded,
fc5f,
faf2,
019c,
00ad,
020d,
fd2b,
0244,
0166,
001f,
fe3b,
fd64,
fa32,
005c,
00e9,
fee5,
fb9b,
ff79,
fc46,
0432,
fce0,
0426,
ff1a,
fe52,
fd48,
fd83,
04da,
fc65,
0058,
0000,
0448,
fd1f,
00b1,
03e7,
fe20,
fd6a,
038d,
fcb4,
fccc,
fe9d,
050a,
020e,
019d,
046f,
00d0,
ff47,
fc68,
00a3,
ffbb,
fe80,
04e6,
fef8,
04b4,
046e,
fbe6,
fc48,
0102,
02cd,
fe36,
010f,
fcf8,
fbdc,
fed0,
012a,
fcc9,
0410,
0355,
01b5,
fceb,
ff67,
042e,
fc9b,
00ea,
ff26,
0271,
0308,
04de,
fd91,
03eb,
fefe,
fcbb,
0179,
0104,
ff88,
01da,
fc46,
010b,
fa4d,
faf6,
fd4d,
fbfd,
01d4,
039a,
ff58,
ffab,
ffec,
fb8b,
0260,
0384,
0231,
ff03,
011b,
ffe1,
01bf,
fc39,
fec9,
ffa8,
027d,
fc63,
fe63,
01be,
fbfe,
fd7b,
fd2f,
0085,
04ea,
0462,
02ef,
03d5,
0664,
ffe2,
f996,
fe41,
fb66,
fb93,
ffe4,
fba7,
ff19,
0428,
0120,
023e,
037e,
0406,
fdd0,
feba,
0392,
fd38,
f9ea,
fcdf,
fd3a,
f875,
ff7c,
fe4a,
03ab,
fe97,
0713,
0ca6,
0659,
07bc,
039f,
f817,
f849,
f902,
fb93,
fff7,
fd22,
fc09,
ff2d,
ffa3,
fd65,
02d7,
0068,
fdbd,
fe34,
0213,
fee2,
fd8d,
fc9c,
00ce,
fb46,
feb3,
02c8,
0376,
0051,
04cb,
0340,
fd38,
03fa,
fc0c,
f81a,
fe17,
fd28,
fb86,
fa73,
fcc9,
01ae,
fe39,
fc4d,
02e7,
fda1,
01a9,
008f,
029b,
0167,
ff24,
fdc2,
fbcd,
02ec,
ff46,
00df,
0b66,
0300,
fff1,
fa49,
fd8e,
f689,
f725,
f929,
013e,
00af,
f959,
fe34,
fd3a,
010f,
02f5,
01b8,
00f1,
0393,
ff5a,
02cb,
ff34,
01e2,
0228,
fb73,
fc57,
01bb,
0575,
06fd,
02ba,
04b6,
0360,
fed0,
0128,
0116,
fc67,
037a,
f906,
f8e5,
ffd3,
ff40,
01f0,
ff09,
051f,
023a,
01a2,
03ad,
fd6a,
00df,
fcc9,
000e,
fca4,
0362,
0617,
0764,
0193,
fd37,
00fb,
0893,
0afa,
073b,
069c,
ff31,
0045,
03a6,
01e8,
fc71,
001a,
0875,
0250,
0214,
fe6f,
fe55,
0370,
ff7e,
01b1,
fb9c,
03c8,
0468,
01b1,
068f,
0040,
0247,
075c,
ff2a,
02bf,
0b96,
0a20,
091f,
08b8,
ff58,
fdee,
fda3,
00c4,
fcdf,
fc6b,
02b1,
0398,
02c4,
fd78,
03e7,
fcd4,
05c9,
020a,
0356,
0713,
0914,
052d,
0558,
04b0,
042a,
05ad,
018f,
ff78,
061b,
09d2,
0b65,
0761,
01ff,
f98c,
04ad,
fe07,
0316,
ff50,
06d3,
0284,
00bf,
fde4,
0190,
fcdb,
ff32,
02f5,
ffa4,
02d2,
07fd,
0a7d,
04b0,
ff54,
0276,
00e6,
fe2b,
044c,
05bb,
06c5,
0300,
05f2,
075f,
0048,
05cf,
fe11,
03c4,
0047,
0661,
fdab,
fdf1,
fdfb,
fd07,
fc76,
fd75,
fef0,
001f,
0406,
01d3,
004d,
03ea,
fc92,
0428,
ffc3,
05db,
007e,
f99f,
f86a,
fadc,
0356,
0118,
ff8c,
0270,
fdfe,
fbcf,
00ef,
fe07,
fe6e,
0175,
010f,
fecc,
fcb7,
01e0,
ff52,
046b,
0245,
0020,
02c1,
0028,
0062,
ff25,
013f,
0071,
fdfe,
f83f,
f894,
f3af,
ffac,
03be,
0776,
0456,
fc52,
fea5,
fcb2,
fa49,
fe0c,
0117,
02ad,
fc5d,
0529,
fcc3,
fc75,
0238,
04f7,
faf6,
fec1,
fed8,
0275,
0241,
02a4,
07ab,
0398,
ff48,
f284,
f07b,
fc1d,
058c,
01a6,
07de,
fda7,
ff41,
fe0e,
0319,
027d,
ff07,
0186,
040a,
02ec,
0201,
fb0b,
0183,
fc6a,
fc60,
f7d0,
f4a5,
01b9,
00a7,
04f5,
0513,
0280,
f3e6,
ee58,
f2fa,
011f,
04f2,
03dd,
08de,
005d,
fe42,
0173,
010c,
fdf6,
001e,
00d3,
02f1,
0483,
fee8,
0095,
0316,
fb82,
fa3c,
f9ad,
fab8,
fb37,
ffb5,
ffa8,
00f6,
f45f,
edc8,
ebd5,
f388,
005f,
fefb,
fdd6,
0316,
ff58,
02e6,
0341,
01cb,
f8cc,
030c,
04de,
ffe3,
fd4c,
02d0,
fe54,
02c2,
f6b6,
f66d,
f779,
f65f,
f61d,
f8f5,
f196,
f72b,
eccb,
f2fe,
f388,
00e6,
0217,
05fa,
fea9,
02f9,
fe80,
000e,
0114,
fb5c,
fc88,
fd77,
0042,
ffa9,
027c,
0488,
fef7,
fa37,
faf0,
f4e9,
f802,
f7b9,
fc07,
fc9c,
f617,
f512,
f5c9,
fb06,
fc2e,
03d6,
0773,
06b0,
fd1d,
fd34,
f97b,
fd0d,
ff8a,
0124,
0018,
005b,
fd54,
fd4a,
0397,
0204,
04f2,
05a7,
fe17,
f7da,
fbb2,
fe93,
fd8f,
f548,
fc1c,
fd20,
fcd4,
fbe5,
02e3,
04d2,
00ba,
05a9,
fc5d,
0278,
f93c,
f433,
fab0,
feb0,
02ac,
028b,
0019,
ffac,
01fa,
fe22,
00e1,
03ea,
00aa,
fc06,
fcb6,
fdc8,
ffe7,
fea5,
f988,
fec4,
fea2,
fbc4,
fe00,
0719,
05e1,
0178,
ff79,
fe63,
f705,
f666,
f763,
ffb9,
fc07,
fe91,
00e9,
0197,
fc71,
fdf6,
0281,
fe8d,
fc2b,
fed7,
00ab,
fe6c,
0248,
fcdd,
fc5a,
fce4,
fbbd,
02b6,
ff6f,
03fa,
f9f3,
fa9c,
f5c8,
0267,
fa7d,
fb28,
fbec,
fe04,
fb9f,
fce8,
013e,
feb4,
0083,
02fa,
ffdd,
ffcd,
0563,
faa0,
015e,
ffa4,
04da,
050a,
0172,
07bf,
081e,
07bf,
0b71,
060f,
fd69,
fef1,
fc83,
fc8a,
ff81,
0126,
0025,
fb1d,
fe7b,
0355,
0513,
04fd,
0124,
00b0,
feb6,
ff68,
03b7,
0559,
0404,
ff71,
fbed,
0814,
0cde,
07cc,
049b,
0a10,
065d,
02ec,
05bc,
fc39,
f9c0,
0186,
03bf,
fdf4,
fb5b,
045f,
00ab,
fe82,
fc1b,
015c,
fe7a,
0162,
05a5,
01a4,
082b,
0237,
07ed,
0819,
067a,
05a0,
fc25,
0625,
0a9a,
0627,
0904,
0087,
04a5,
fda0,
f52a,
feaf,
01fa,
03a5,
0186,
fc32,
ff3f,
025b,
0015,
0035,
0242,
021d,
02ea,
031b,
0103,
082b,
05bb,
06f9,
0463,
ffdb,
fdec,
ff81,
fbb7,
fe76,
fafe,
03a2,
016c,
fec3,
fda2,
0392,
00ee,
0263,
fdb3,
02b5,
fee2,
01bb,
004d,
fd09,
fdbf,
01a7,
00fc,
00ff,
febb,
0378,
fd80,
fc45,
0055,
0346,
031a,
0168,
fe85,
04dc,
01aa,
03da,
0035,
07ea,
02c2,
00c0,
014c,
02a4,
0312,
049f,
0413,
0004,
0226,
ff53,
00fe,
0098,
fe94,
02ee,
0452,
ff6c,
002f,
0403,
051b,
fe81,
ff8f,
ffe0,
fbfe,
0379,
ff7f,
058a,
0482,
045d,
fd38,
01ec,
04b6,
ff9d,
02b6,
01cb,
fef6,
00d9,
02ab,
027c,
05b7,
fe8a,
0566,
01b9,
fe05,
fd41,
0264,
fcb0,
033b,
033c,
fec4,
0287,
fd82,
0570,
fe12,
ffdb,
048e,
0035,
0306,
0315,
ffa2,
0532,
024e,
047a,
fd6c,
fd40,
032f,
00c0,
01e6,
ff66,
fcea,
03a1,
02a8,
01e5,
0112,
033a,
0354,
0065,
02f2,
00f7,
fcfa,
0329,
00e0,
ff1a,
0535,
008c,
03f7,
0479,
fd7f,
fe0c,
02fc,
02df,
004c,
ff29,
fd46,
0511,
01ef,
fcbe,
0045,
fdb0,
02a3,
0116,
01ea,
ff5b,
0204,
056f,
02ea,
04c5,
0094,
004a,
fdc2,
ff94,
fe8f,
04a8,
0548,
059b,
fd2d,
05a1,
0325,
03b5,
0540,
01a0,
0208,
0152,
fee3,
0400,
011d,
ff8d,
01ae,
fe1c,
0354,
04b2,
025f,
fddf,
0087,
008e,
0445,
051e,
fc27,
fd79,
0269,
0141,
fb4c,
fdae,
00f8,
02b3,
057b,
0337,
fd97,
0164,
05ae,
fe4f,
ffc2,
0053,
ffad,
fd64,
04f5,
04a9,
ffee,
0418,
0047,
fff6,
fda0,
01bb,
fb97,
002e,
ff6a,
0051,
ff7b,
0199,
fcf6,
0301,
009c,
fe42,
00b0,
0040,
043b,
02f6,
056f,
02fd,
0205,
0321,
fe28,
ffab,
0066,
02af,
0062,
fcbc,
ffeb,
0169,
fe60,
ff48,
ff5d,
fac5,
0040,
02eb,
0113,
029e,
014b,
fd9c,
0234,
0149,
ffb2,
0540,
fea3,
fce9,
fd40,
fda3,
fe21,
ffcc,
0376,
fec4,
051b,
0469,
019b,
0473,
fff0,
009d,
fc32,
fbad,
0154,
fb3b,
ffb7,
fb34,
fd2c,
fe04,
01e2,
00c8,
ff8f,
ff68,
fd98,
0161,
00b4,
00a8,
028c,
fe61,
fdad,
026d,
fece,
0337,
00ba,
0467,
006c,
01e5,
0218,
0446,
fc03,
ff4e,
ff44,
faf3,
fe6d,
fdc0,
fdb5,
046d,
04e2,
fbfb,
00b4,
009f,
049d,
05a7,
fe8f,
0357,
fd23,
fd07,
fea9,
0410,
fe16,
fef1,
0121,
fff4,
0320,
0234,
fd7a,
01dd,
017c,
fdf8,
0253,
fc99,
ff35,
fee7,
0448,
02df,
fcd0,
034c,
ff06,
03a3,
040e,
fdd2,
fdf6,
fe11,
ff16,
fd6c,
04d9,
023a,
0252,
fdff,
0512,
fcdd,
fcdb,
029b,
031f,
0288,
01d2,
020e,
fc7d,
fe17,
fc71,
fcf8,
018e,
fc2d,
fcc2,
0178,
ffa9,
feec,
0314,
fe88,
049f,
02ef,
ffc6,
0495,
fe3b,
03ae,
fffb,
0081,
03a1,
fdc9,
fd8d,
fe4a,
030e,
fc6a,
fc32,
0127,
ff70,
006e,
fc5f,
fbf0,
fb3a,
005a,
02ce,
03ae,
feee,
014a,
fd2f,
01f6,
02e5,
03bb,
0472,
fcc6,
ffdb,
fcd2,
fd6d,
ffce,
ff75,
0340,
029b,
ff38,
fd55,
0073,
01d7,
fc72,
01a1,
fd86,
0208,
fb92,
fb95,
ff14,
fd60,
fe2f,
ffe4,
ff8d,
03e9,
04b9,
ff0c,
04b1,
feb9,
fcec,
013b,
0311,
01aa,
0440,
fd23,
03f2,
fca9,
04b6,
0548,
ff00,
0406,
fa89,
00dd,
0075,
fef9,
fc37,
feb8,
034e,
fb29,
fdff,
0179,
024e,
fcc5,
0224,
05b2,
0465,
00e7,
02f5,
fdaa,
ff23,
0022,
00eb,
fdd7,
04a7,
feef,
fcd4,
fdad,
ff4a,
0484,
fce1,
fe52,
fc85,
02f1,
fbf1,
fd66,
fc37,
feff,
002f,
fd0c,
fdf3,
fe26,
00ce,
0175,
ffef,
011b,
fec8,
ff86,
02d9,
febe,
045e,
fc84,
fff8,
fc76,
fcbd,
044d,
fc6d,
fd62,
fec7,
035e,
0257,
fe28,
fd35,
fda2,
0337,
fd9e,
fc83,
055f,
0390,
0453,
0527,
03f8,
0182,
fda4,
fd5c,
fcd9,
03e7,
02a5,
fdf8,
0112,
01af,
ff32,
0239,
01e0,
fda0,
0094,
fd24,
faa3,
002d,
0107,
0322,
039d,
fda7,
fdd6,
035e,
0173,
052f,
ff53,
026f,
01de,
fd16,
0459,
fcf9,
0095,
02dc,
0060,
00ce,
fd2f,
febb,
0055,
0209,
fbfc,
fc0a,
019a,
0155,
0327,
fee2,
0334,
ff1b,
0281,
0313,
012c,
fbfa,
044a,
fd6b,
0029,
fdd9,
027d,
fd94,
01c0,
03eb,
04cd,
043f,
003b,
0357,
03f0,
010f,
fd7a,
03bd,
016c,
030d,
0302,
fad3,
0129,
fa5e,
fcae,
fbcb,
fe01,
004c,
fff3,
fdc3,
0076,
ff24,
fcc1,
0302,
fe3c,
fe68,
ff8a,
0117,
0547,
0279,
00a3,
0086,
fe12,
0480,
00a0,
002b,
ffc9,
fedc,
01a7,
01c6,
fe21,
fbe6,
ffda,
01a2,
ffaf,
fced,
fce8,
fe3e,
fd58,
00df,
fe20,
fd75,
fdfb,
03bd,
0073,
03ec,
fcf0,
02e9,
00d4,
fe40,
ff04,
0155,
0084,
02ea,
fd2b,
fdd8,
fbc1,
fedf,
fe44,
0202,
fdc9,
01d9,
fc68,
fcb8,
fe24,
fcbb,
fc89,
fe53,
02eb,
00fa,
04f0,
fdc6,
00f7,
0288,
0205,
0022,
0476,
01b2,
fc4a,
fbd2,
ffe3,
fa75,
fb6a,
0207,
fc63,
fda8,
01b6,
0279,
fb84,
fc34,
feb7,
fc5e,
0218,
fd10,
04eb,
feb7,
02f4,
04c5,
fe19,
04b6,
fea1,
04f4,
0450,
fd30,
037d,
01f1,
03af,
fdfc,
03c2,
fcf5,
027e,
ff0f,
fd87,
019b,
fffa,
0015,
01c1,
020b,
03b5,
fc02,
0018,
0100,
04f0,
02fe,
ffbe,
021d,
0596,
fea6,
01c4,
002c,
018f,
050b,
00d0,
038e,
fd87,
0558,
00ae,
fd47,
ff85,
fff8,
ffbd,
fe12,
fe79,
0280,
fd0c,
0045,
fa06,
fe73,
feb3,
0249,
01b1,
02d5,
0002,
02c1,
00de,
0010,
006b,
fce7,
0256,
017b,
044f,
042a,
036a,
013e,
00e9,
0056,
feb6,
052f,
fe5d,
0172,
023d,
fe46,
018c,
fece,
fcbb,
ff2f,
00f0,
0316,
00ba,
fd77,
fccf,
fe61,
05ad,
0546,
0107,
041c,
fe3c,
014b,
02c5,
fdb0,
fc39,
fcac,
04c4,
ffa5,
02c5,
0565,
03a0,
04b9,
01b8,
04d6,
02ad,
fee3,
0177,
007d,
fcc5,
0500,
fdf6,
fd6c,
04e9,
0244,
fd67,
fe47,
0069,
04be,
051d,
0499,
0523,
fdfc,
fed2,
043e,
fd9b,
01a9,
0261,
0436,
026e,
0584,
fd35,
0152,
fead,
0437,
fd4e,
fd50,
0186,
fd1a,
fcfc,
04f5,
009c,
0068,
0023,
0027,
ff8e,
0523,
02b2,
fdde,
02ba,
fcf8,
01f0,
03b0,
039b,
fe19,
012d,
fcd7,
01ac,
02e6,
fe2b,
04f1,
fe0c,
fe9f,
fdbe,
fe5e,
008b,
0037,
049b,
fe45,
03a3,
02fb,
051a,
01e6,
fdf7,
fd44,
fd05,
fed2,
022f,
0260,
fdd0,
fca8,
ff26,
fd6d,
03db,
0104,
0538,
0104,
0056,
0258,
fe3b,
fdfd,
0249,
0537,
ffdd,
05a6,
002f,
059d,
fe85,
0008,
0143,
ffb7,
fcae,
056e,
0447,
0656,
058d,
0523,
02f4,
fdf0,
0110,
02fc,
00e9,
01ed,
ffd2,
01dc,
fe4b,
0557,
0521,
fdb1,
030b,
ff95,
009b,
01d4,
01e3,
fefd,
029d,
fff6,
052f,
0585,
029c,
fe3a,
05f4,
05f4,
ff93,
fe26,
01f2,
0525,
0427,
017a,
ffce,
05ad,
0057,
02fc,
0042,
0443,
0371,
0348,
ff72,
fde8,
fe1b,
0342,
fe6a,
0263,
0589,
0520,
003a,
05d2,
fe76,
0530,
0181,
0324,
fd95,
063b,
03d2,
019c,
fda0,
02eb,
fdba,
0588,
054c,
012b,
ff89,
05d4,
0192,
0125,
0467,
006a,
0195,
0618,
022a,
00fa,
0272,
ff42,
03fa,
0100,
0632,
0465,
00ea,
fdb4,
fe79,
0574,
032c,
0437,
0241,
feb7,
04a1,
037d,
04e5,
0149,
053f,
fcb6,
fdbd,
047e,
0218,
fe90,
fd38,
0023,
0562,
04b7,
04d3,
0119,
ff2c,
04f7,
fea1,
0116,
00b1,
ff8a,
0627,
fdff,
00be,
0313,
ffde,
046e,
fede,
0212,
04f5,
fc5e,
fbbb,
ffce,
03bd,
03ee,
025e,
01e7,
ff7a,
01e8,
fd96,
01c1,
0321,
06ab,
0537,
fdad,
0171,
0174,
fe92,
0023,
fe87,
fdb4,
0497,
0206,
fcc1,
fc6c,
ff53,
036b,
ff3e,
fe6d,
02a5,
fe66,
fc94,
fded,
fe96,
002a,
0043,
0276,
ff64,
fe5f,
fe91,
04c7,
018d,
0029,
04ff,
023b,
0052,
05b7,
fd55,
0276,
fce0,
fbfe,
016a,
fcb8,
ff4b,
00d0,
fecc,
feb7,
0109,
01e4,
fed9,
0082,
01be,
f908,
fb3d,
ff1a,
fb1e,
fdc2,
fdeb,
03d5,
0166,
01e1,
feca,
04af,
0556,
01a7,
0411,
fcc2,
060e,
031a,
02af,
00d5,
fbd6,
0000,
ff0e,
03ad,
fbf8,
fb10,
0320,
0296,
ffa8,
fab9,
fc79,
00ed,
ffca,
ff22,
05f8,
05bb,
01b0,
fe79,
fe94,
0039,
0553,
055a,
ff89,
0050,
fcc6,
00e4,
fb52,
fe08,
fd7b,
fe5e,
ffda,
ff8c,
fe51,
0073,
fb94,
0409,
fb62,
ff9c,
f9bc,
fc7a,
01bc,
0370,
02d2,
009a,
ff15,
0209,
fed6,
0160,
034f,
00b1,
fe27,
fe8c,
ff47,
03ac,
007e,
ff3b,
000f,
ff18,
fec3,
014b,
ff8f,
0211,
0510,
fefc,
ff74,
fff3,
fbd2,
f95f,
ff83,
fd5b,
fa19,
feaf,
0461,
04a4,
05cd,
ff4d,
016d,
fe95,
0010,
0564,
01c7,
0329,
fbf8,
fcfe,
fd26,
0409,
fc75,
fb62,
04a2,
0312,
fe0d,
01e3,
fcab,
ff06,
f8b2,
fe0e,
fd03,
ff81,
0292,
0431,
01a0,
fe8c,
fe3e,
00e9,
0487,
fde8,
01cc,
fe4c,
fc1a,
f9ec,
0110,
fa7e,
fcc3,
fbc2,
00d3,
0354,
03a5,
0242,
fa38,
fadb,
fd8a,
fc49,
0028,
f923,
fb48,
fdd9,
00db,
feb0,
0042,
05f5,
0531,
049a,
fdb9,
0482,
032a,
fce4,
01e0,
01c9,
fc06,
006b,
0079,
fd5d,
0359,
fc19,
017d,
ff28,
fdf9,
fbc0,
014b,
01ef,
05ea,
ffaa,
fb9d,
fe56,
fe2f,
0374,
fffb,
018d,
ffbc,
0419,
05bb,
01be,
ff5b,
fd9d,
fcaf,
02cc,
fac9,
ff39,
fccf,
0148,
faa2,
02db,
028a,
fc57,
fb58,
fe56,
0511,
032c,
0258,
fcfa,
fafb,
00d1,
030b,
03cb,
0455,
ff7c,
048a,
0311,
01e5,
0635,
fea6,
0470,
ff3e,
fe2b,
03d3,
050c,
ffa2,
fdac,
fb67,
021a,
01a9,
041f,
feeb,
fd27,
04d5,
0370,
f948,
0048,
00f5,
fb94,
023d,
0051,
03b0,
ffe2,
0445,
017c,
053d,
0548,
0299,
fcc8,
fecd,
fb3c,
fe50,
0494,
ffd8,
0092,
0395,
fe33,
ff35,
fd17,
fe1f,
0377,
fc65,
fc5e,
ffbf,
fd0e,
0063,
00fc,
ffb0,
fbd2,
fd87,
021b,
056c,
02b1,
0540,
004a,
033a,
012a,
f7e8,
fee5,
fcf4,
0030,
07c2,
0687,
06c4,
ff9e,
0481,
03b5,
fd44,
0122,
015b,
ffd7,
fbad,
fa1b,
ff6f,
fb66,
fcc9,
fdb8,
020e,
057e,
008f,
03c9,
040e,
0032,
0492,
017c,
0070,
f78d,
f8b4,
faf0,
0173,
02a7,
0644,
fd96,
fd41,
fba7,
024d,
fd59,
0197,
011f,
fed1,
fec0,
fede,
fa18,
fd79,
0612,
04a5,
0382,
0307,
005f,
066d,
fee9,
feea,
fbaf,
fa23,
fd55,
fa95,
feda,
fea7,
fb30,
ffb9,
fe2a,
fdf5,
fc7c,
0015,
fc90,
0027,
feef,
feaf,
fb3b,
f9ba,
0064,
ffe1,
04a5,
fdd8,
027d,
01c2,
031b,
057f,
ff81,
03f2,
fcee,
ffa0,
00ec,
fb95,
0114,
fbdd,
0022,
fe37,
01f9,
0266,
fff1,
f93b,
fc04,
fb58,
0279,
fc48,
0079,
00e8,
fe73,
04b3,
012f,
05e9,
fe47,
0526,
fdf4,
fe5a,
03c8,
0409,
fef9,
044f,
fd20,
fe58,
00d2,
0091,
fe4b,
00fa,
0187,
fccb,
ff29,
fe73,
ff92,
febb,
0337,
fdb3,
fcb9,
0236,
ffa2,
fef0,
008c,
0260,
051c,
0423,
0438,
ff43,
022b,
fdad,
fe4e,
fc49,
fed9,
001d,
00de,
fb55,
fee9,
0330,
031e,
0027,
fcda,
faa8,
01c5,
fe58,
fb6a,
04a0,
fc2f,
0236,
fad6,
ff1d,
044f,
ff8d,
0243,
0361,
05ab,
fe66,
03c0,
023f,
fe1f,
fc0e,
01b8,
fd7e,
00ab,
fbd5,
023c,
fbd0,
feb5,
fedf,
fff5,
f9a4,
fc67,
fd48,
ff10,
01a4,
0451,
0457,
fff4,
0158,
0038,
ffa0,
fde5,
ffbf,
0075,
0420,
064d,
0325,
0093,
fd09,
027b,
fbed,
0205,
0098,
fe8f,
014e,
021b,
fa6d,
fc94,
ff17,
0171,
0751,
064d,
04df,
ff86,
ff9e,
0331,
0193,
045f,
03e1,
05a2,
003a,
0561,
012e,
001e,
02f4,
fe8e,
0144,
ffa3,
fc5f,
fdbb,
fe88,
0471,
fe1c,
fdaa,
fbb8,
fd12,
0002,
0538,
fd1f,
029e,
0775,
06f5,
01e8,
01f4,
0672,
fe85,
018f,
0367,
0325,
0657,
059d,
066e,
05b2,
fef9,
04b0,
018d,
05ae,
064b,
01e7,
0235,
ff56,
fe3a,
fcad,
f886,
fbd9,
0053,
0130,
02e4,
04f5,
0812,
0587,
0431,
0045,
015a,
00a9,
fdca,
fef4,
04f5,
06a5,
ff00,
00cb,
fe2a,
0198,
fecb,
0018,
0560,
000c,
0606,
0451,
0659,
023e,
0185,
05d3,
03c0,
0032,
fdcd,
04b7,
0139,
06f0,
0609,
0210,
0108,
0012,
04ea,
02fc,
0637,
00c5,
048d,
fe3b,
0630,
0171,
018c,
03d2,
0643,
feaa,
065a,
0402,
0364,
fd85,
ff25,
fd6d,
05ab,
060c,
010a,
0022,
052f,
02a1,
00d7,
02d2,
026f,
05bc,
05e3,
002e,
fd91,
02ea,
0012,
fdea,
ff3a,
03b5,
01cb,
03f5,
ff15,
fe4f,
0201,
01f0,
fead,
02ed,
03ef,
02c4,
002f,
00e5,
030f,
fcaf,
feed,
00e0,
04f1,
fcc3,
ff16,
051e,
fd71,
fe53,
fef3,
021f,
fc6e,
0325,
04c2,
02bf,
02ca,
02ce,
fbee,
02d1,
0081,
00c3,
fdfd,
04b9,
fcef,
038a,
02ee,
fd79,
0424,
01bd,
03f6,
021c,
ff8a,
ff24,
ff99,
fd32,
ff9a,
fd2f,
fd91,
fe53,
fcfe,
04de,
0012,
ff00,
fcac,
02a9,
0431,
007f,
0339,
002f,
fd34,
ff92,
0329,
fce0,
fc52,
fb71,
0138,
ff3a,
fc12,
fd92,
017e,
02e7,
0439,
fd2d,
0397,
0357,
02d5,
fc3d,
0382,
009b,
fccf,
0173,
fc52,
0229,
017e,
fd6b,
0370,
fe5a,
0217,
0003,
f77e,
f71f,
fd03,
006a,
fb54,
fba3,
fd80,
ff96,
0260,
ff64,
0353,
027b,
fca6,
04a5,
fef6,
01a2,
0061,
0186,
0168,
fd5e,
001c,
fcf1,
fbb7,
0050,
0224,
04dc,
033b,
f977,
f819,
fb28,
fe46,
0118,
f860,
f76b,
fb78,
fe1d,
fb0e,
fc30,
fd96,
0236,
fea9,
0012,
00bc,
fc77,
0011,
fffc,
0425,
02cb,
03c1,
02b7,
0a6c,
0bd3,
ff25,
0310,
fe99,
0144,
041e,
fe46,
fef0,
fc8f,
fa91,
0002,
fd2f,
ffa3,
fe0b,
fde8,
01df,
ffb4,
01b3,
03a3,
fe77,
fd81,
ff91,
022b,
052d,
07eb,
09cc,
0a1e,
0d4e,
0acd,
070e,
0558,
046a,
0454,
fb80,
f728,
f981,
f9c2,
fb9c,
0c6c,
01cc,
0407,
0000,
ff43,
f8b5,
01c0,
00bd,
0082,
0303,
02ee,
ff3a,
00c4,
028d,
096c,
0d55,
0afe,
0ad3,
0bce,
03d9,
0125,
0293,
0050,
f83e,
f4f6,
f7b8,
00d0,
0151,
077f,
0441,
07ff,
02c1,
05a9,
fc6e,
fb7d,
ffbb,
fcc6,
01b3,
039f,
fe79,
00f7,
05ce,
0abb,
0999,
0bd7,
0637,
0d38,
06f9,
0322,
071a,
0611,
0686,
fe80,
fda3,
057e,
0144,
0066,
026a,
03b1,
0245,
00a5,
fbc1,
fc83,
ffd0,
043d,
fd49,
0317,
ff3c,
0573,
ff6d,
013f,
ffdf,
fded,
ffd4,
0858,
0814,
02fa,
0c64,
06b8,
0021,
009d,
fe57,
08df,
0235,
0213,
0545,
0853,
0868,
fc9e,
feea,
037c,
0552,
ff04,
ffa5,
fe67,
03ec,
fc5c,
fbee,
fd14,
fabe,
0028,
03da,
036a,
04c5,
0481,
fede,
08ef,
040d,
fcf2,
feef,
03f4,
fc97,
fe8f,
fe98,
0cfc,
0696,
f792,
054d,
03e0,
03bc,
0376,
fc21,
03d8,
040b,
0019,
fe41,
fbb4,
fa77,
0691,
03e5,
fa0b,
fd7e,
fc46,
fea9,
fae2,
f6d1,
fddf,
fe0f,
0076,
f875,
fe30,
0092,
060a,
0015,
fdfa,
04cb,
0010,
031b,
0201,
febb,
fe40,
02fc,
0213,
fca8,
f465,
fd08,
fd3a,
f915,
f45b,
f5f0,
f74b,
fb6d,
fb41,
f566,
0065,
fe19,
fb82,
fae5,
0051,
0834,
0aba,
fdfe,
fd8a,
0524,
ff89,
03bf,
02f3,
01aa,
03e5,
ff41,
ffd3,
f95b,
f89c,
0042,
fa23,
f15c,
f16e,
f728,
faf1,
f63c,
fe0d,
f41f,
ff77,
0327,
f991,
fde6,
fd0f,
fed3,
fef9,
fef2,
02c6,
02b2,
0a1d,
ff26,
01e5,
0164,
0452,
ff1c,
fe18,
f4b5,
f83f,
f884,
fac0,
e777,
e916,
f46c,
004f,
ffa0,
fcd8,
f95b,
fb17,
fa54,
fe5a,
04a8,
0636,
fb81,
03f8,
019e,
0401,
0a98,
0691,
0775,
0073,
fc6c,
fe04,
00ec,
00a8,
f4e6,
fea1,
fa1e,
f5a0,
e790,
f1d0,
fd7f,
0da1,
fddd,
0020,
fed7,
fe97,
fb16,
0085,
080c,
fea5,
008d,
056c,
00c3,
ff1c,
0ca4,
025c,
0107,
021a,
0442,
039b,
009d,
00df,
f748,
f3c4,
fad9,
efa1,
ee87,
0010,
0bdb,
0f78,
063d,
fe0e,
0015,
00fc,
00c2,
0657,
0558,
ff7c,
00d9,
0716,
fe25,
0007,
0026,
0101,
049c,
fea2,
fdfe,
febc,
040c,
fc09,
fc56,
f330,
f7b3,
f17f,
f96d,
0b5b,
12fa,
1266,
feec,
fbd4,
fbb7,
fef7,
fce9,
ff53,
03ae,
0094,
0385,
0519,
fad7,
fffa,
046e,
052e,
0448,
029c,
fc2c,
fcc8,
fc64,
ff05,
fbb6,
fdcb,
f093,
f53d,
062d,
0de3,
0fd2,
068e,
0334,
fd0d,
ffe7,
fb70,
ff50,
fcc4,
ffa4,
fd7c,
fdff,
f869,
f8e1,
ff27,
035d,
03d4,
ff95,
0453,
0349,
fc39,
fda9,
fef1,
0154,
f467,
ed54,
fac0,
0bcd,
11eb,
1633,
10f7,
027a,
0136,
031b,
02dc,
fc92,
f3f4,
f668,
f321,
f1de,
f6a5,
f835,
fec2,
0058,
0446,
03d5,
fc7c,
fc70,
010f,
ff5e,
0601,
fbfe,
f54d,
f5d3,
fe4d,
0665,
0de2,
11cd,
0dcc,
078c,
fed6,
03c6,
055a,
f57c,
f653,
f67f,
f375,
f4e0,
f4a9,
f7f3,
fdce,
018d,
0129,
fc42,
035a,
02a0,
fed6,
0407,
0535,
f9da,
f7bb,
fee5,
f76a,
00d6,
0493,
0eaf,
0979,
0848,
fe50,
fe48,
fcdc,
f620,
f3c7,
f83d,
f873,
ec9a,
f759,
fe29,
06c3,
03a4,
fdac,
ff65,
fe05,
02aa,
ff87,
fede,
0337,
fa49,
fbbb,
f862,
05a0,
07dc,
06ec,
070b,
05e7,
04fe,
fed5,
fda1,
fcd6,
fcca,
fc84,
fc9a,
f5b0,
f821,
f9e1,
0177,
027b,
003f,
ff85,
fc63,
fe30,
fe27,
039d,
fba9,
ffbf,
fd6c,
fb32,
ffc4,
0425,
03fd,
03a4,
017f,
032d,
0555,
070f,
01d3,
fe64,
05ea,
01e5,
fdd2,
01c2,
ffd9,
fec3,
fdb8,
0107,
fc43,
fcb1,
ff2e,
fe78,
047b,
fff0,
00c3,
fc18,
fb1e,
0205,
01b8,
f5cb,
f851,
004b,
fdea,
0019,
0631,
099a,
0843,
09cc,
0856,
fac2,
ff99,
00e6,
fd4d,
f85e,
00a0,
00c4,
0504,
038f,
ffaf,
0111,
0376,
ff75,
0399,
052a,
01d0,
fcfe,
fdc0,
fd81,
f7be,
031f,
0893,
05ae,
0413,
04fd,
0921,
037b,
07c7,
ff36,
f6bd,
fa9a,
fb45,
f989,
fd78,
fbb1,
fc86,
0433,
fc67,
fff5,
00b5,
0033,
fd21,
0306,
012a,
fff1,
f746,
fd95,
0458,
03af,
017d,
ffa5,
0032,
fbf4,
01f7,
ffc7,
ffaa,
fc8f,
01a0,
fe40,
fb58,
fd86,
fd38,
ff6e,
fec4,
02cb,
0012,
0249,
02fe,
0032,
fc0a,
fc1a,
fd74,
fd67,
fdb6,
04a9,
fc3a,
020d,
ff5b,
022d,
03e8,
056b,
ff91,
0018,
03d4,
fd17,
0007,
0343,
feab,
fca6,
011a,
0134,
0312,
fd01,
0350,
fc78,
035c,
02ec,
fc69,
0361,
0539,
0540,
fdc6,
030f,
ff22,
fe33,
052b,
fcb2,
fedb,
02b6,
fd64,
fc78,
02bf,
013e,
fc5b,
fde3,
ff04,
0420,
0474,
01b0,
fdcd,
fed5,
051a,
fcfc,
0064,
00d6,
03a3,
fe79,
02e1,
fccc,
0357,
ff66,
0002,
0298,
0241,
fec6,
fe4d,
0164,
fe93,
0059,
fe0a,
03ea,
fc22,
ffac,
fef3,
fda7,
ff26,
fd68,
03a4,
00b7,
0416,
002a,
fd2f,
fe62,
0245,
fc7a,
fde1,
ffb2,
02a2,
0498,
fe77,
0296,
fdda,
fbb7,
ffe1,
0313,
00ff,
025d,
0325,
fd42,
0268,
0527,
01d3,
03c9,
0238,
02dd,
02bb,
02fb,
0148,
03a0,
fd75,
ff19,
04da,
042c,
0006,
00f8,
044c,
001c,
0066,
fd08,
fc6b,
ff3b,
fcce,
fba6,
f866,
fba8,
ff1d,
01bd,
fb62,
fd6d,
facf,
021f,
02a6,
fbe7,
008e,
fe7f,
054d,
009a,
0477,
02c6,
03b5,
0338,
015f,
02b2,
ffe0,
022f,
f632,
f9cc,
f83e,
f632,
f97f,
f4eb,
facb,
f953,
f97e,
f935,
012e,
f800,
f9e4,
f917,
fea0,
02ed,
fe88,
0622,
00ef,
fcb6,
0023,
fcfd,
0371,
fda6,
0132,
fb35,
f66f,
f85d,
f74b,
f734,
f6f4,
fcaf,
0039,
ffee,
fc2e,
f485,
f3e8,
f32e,
f143,
f2c2,
fb40,
f8b8,
00d8,
fd9a,
01fc,
05a5,
00ea,
01a3,
02d1,
0513,
048d,
fd7c,
014f,
0149,
f5ba,
f92c,
f899,
fe90,
fea9,
065b,
000c,
fb0e,
fedb,
f9bd,
fce0,
fa0f,
fc74,
faad,
056e,
0612,
0bc9,
05af,
0a2c,
058e,
00d0,
fe65,
008c,
01e4,
0163,
fd51,
f7a6,
faf5,
f744,
fa67,
fd00,
fe95,
feb6,
06b0,
020b,
058a,
fe4e,
0578,
01b1,
0265,
058e,
fe4f,
090d,
0511,
0b81,
0ad5,
0367,
05bb,
0561,
0476,
04d0,
03c2,
ffdd,
0350,
f69f,
f8d5,
fc66,
fece,
f989,
fe5b,
01a0,
0373,
0804,
05ef,
fee6,
fd96,
05a6,
0415,
07fe,
00d5,
05e1,
0523,
08e0,
0b80,
0cd5,
0a56,
0459,
0010,
fe61,
015c,
fd81,
0119,
fa06,
f7e6,
006a,
fc71,
fbd8,
0361,
ff1d,
0370,
0190,
044f,
ff95,
f8d3,
fdd3,
0141,
027c,
02b6,
f9e2,
00a7,
fdc6,
fef9,
0b13,
031f,
ffaf,
ff31,
0204,
02f6,
fe9f,
fd74,
f840,
fb40,
fdc2,
01ba,
03a9,
0781,
03e9,
08a5,
0832,
01d9,
f8d0,
fa49,
f922,
f80b,
fd08,
fdee,
fee1,
0300,
fe7f,
0097,
0a11,
0e88,
0061,
040c,
fddf,
fca1,
0447,
fa93,
faab,
f749,
f8d8,
016d,
ffa7,
0591,
feed,
0b0a,
0439,
0148,
fa58,
f7a0,
fb55,
ffdc,
fc12,
fa01,
f856,
fda7,
0925,
0731,
042e,
023e,
fef3,
028a,
0524,
04e2,
0577,
fc52,
fb2b,
f28c,
ff61,
0189,
09a2,
05b0,
0043,
0594,
041b,
0920,
fe1b,
fa7d,
fb2c,
fb28,
f775,
f72e,
fa2a,
f809,
fe63,
fb00,
0186,
ffca,
032e,
fc16,
005f,
fdfd,
00fd,
ff78,
f7f9,
f4df,
fc3d,
0d41,
0242,
03ce,
04d0,
031f,
08a1,
0706,
0816,
0679,
fd6d,
fbaf,
f4e6,
f9f8,
ffa9,
f86e,
f58a,
f683,
0009,
f9ee,
0089,
001e,
02ed,
011b,
02ba,
fa60,
fe04,
00b9,
fde1,
0627,
0775,
092c,
050d,
01cf,
004c,
00d0,
0143,
0081,
05ae,
015c,
f7d5,
fe87,
028d,
fe1b,
fc2f,
fe07,
fa9f,
fb77,
fc77,
03df,
fdc1,
0457,
02e5,
fc82,
0062,
fde4,
fa45,
fcf8,
025e,
0c10,
0827,
0356,
0028,
fa1e,
f6ac,
fbd6,
fa07,
056d,
fae3,
fcd3,
feff,
f833,
f8ef,
fd3d,
f88e,
fce3,
fce0,
02d5,
ff23,
fd5f,
022b,
fc22,
fd98,
fbe8,
f1f3,
f3b1,
fe5e,
0089,
0bd4,
08cb,
ff78,
f3f3,
f6aa,
f810,
ff1a,
fb17,
f8a1,
f73e,
f8b4,
fe28,
faff,
f594,
f72f,
fc22,
fdb0,
00d4,
fcb3,
02eb,
fd48,
ff91,
fae3,
ff5b,
f78b,
f126,
f61a,
f816,
032f,
0473,
fe67,
fb79,
fda2,
fd59,
0152,
ff0d,
f8b9,
fafd,
fb48,
fa22,
f435,
fb33,
f9e7,
fbaa,
0240,
02fa,
01b3,
00d2,
0074,
006e,
ff9c,
ff32,
0137,
fcfb,
fe78,
f5a1,
f585,
ff4f,
01b5,
f9fb,
fe7d,
0031,
02c6,
fda5,
f95c,
fd32,
03a4,
f2d5,
f908,
ff70,
fd97,
01c6,
fec3,
fc31,
fe4a,
0348,
fe25,
fbbf,
f85b,
fbe7,
ffb1,
0339,
fd0e,
f515,
f7ee,
0017,
faf5,
fd29,
04f8,
018e,
fdd3,
fe25,
fab1,
fea3,
fd2a,
f3ea,
f892,
fe8c,
fc0f,
0486,
fe9d,
0250,
0025,
039a,
fec7,
fe60,
f9f9,
009b,
fc99,
fb3f,
036c,
f9dc,
ff93,
f9f3,
fa91,
ff94,
029f,
fdc4,
fab6,
fef3,
ffc2,
074e,
f684,
fb14,
014f,
fc16,
051c,
00c1,
0481,
fce7,
fe2d,
0334,
ff8e,
fa70,
fc07,
fbb3,
f76e,
f9dd,
fbc8,
ff30,
ffed,
0281,
fd3a,
fa9b,
fc9f,
f8c2,
fd27,
fe31,
00b9,
0097,
f809,
f799,
02e0,
fbdf,
0230,
fda0,
039c,
0522,
009d,
03e4,
0139,
fde3,
f9d3,
f992,
fb19,
f8d6,
fb67,
0188,
05f6,
fe1b,
faaa,
fb36,
fbd8,
f63a,
f96e,
02ab,
00f4,
010a,
fb16,
fdee,
0228,
06b2,
0431,
03aa,
0432,
000d,
fd20,
04a7,
0368,
02f6,
fda6,
f970,
fd88,
f647,
fafa,
0183,
ff1c,
ff05,
ff6d,
feda,
fc9d,
f9f2,
fe62,
febb,
fd4b,
06c3,
0398,
0173,
fece,
0750,
01fc,
0225,
0205,
fd2d,
018c,
035b,
fea0,
026a,
fd26,
02f4,
fb0d,
fbd5,
ff13,
03d5,
fb17,
ffd9,
fad4,
03b4,
06fc,
0271,
01bb,
fd59,
010e,
ffc6,
0194,
0075,
001a,
088a,
fec4,
fcac,
048e,
04c9,
044a,
02e1,
0412,
049f,
fbf4,
fe8e,
f8fe,
fbcf,
f6b6,
f7d2,
fac6,
0268,
03ad,
0b5f,
08d5,
0419,
0803,
103e,
0d4f,
0d3e,
0378,
04e9,
020b,
000b,
0194,
fdd2,
0009,
01c7,
01b0,
0467,
fd1e,
0046,
fd5a,
0618,
03ce,
022e,
0475,
023f,
0579,
0436,
04fe,
00df,
06d8,
0565,
0af2,
0526,
0109,
03c6,
00d0,
fd3d,
0099,
fe77,
0418,
030f,
fe1d,
039f,
0137,
02ef,
fc98,
01e6,
fe85,
fd16,
0566,
fee8,
05c2,
fdff,
045e,
044d,
0387,
00da,
fde0,
0201,
fda3,
ff15,
fef9,
0354,
02da,
00cd,
039a,
0332,
00f3,
0061,
fe6a,
00ba,
fe3a,
01cf,
0418,
0492,
02a2,
043c,
fef8,
fc27,
01ea,
fd18,
0192,
0140,
fde0,
fde8,
0386,
fde8,
ff06,
ff8c,
00ad,
001b,
016a,
0421,
03eb,
0524,
03f2,
fed8,
fcc8,
ff30,
02a8,
fe77,
fc62,
ff4f,
fdcc,
0038,
fee4,
03c2,
0287,
04f8,
00f5,
0239,
fec9,
019f,
fdf7,
fed2,
00fc,
fea0,
ff29,
0219,
fdde,
fe5d,
ffd1,
0514,
0090,
02e5,
ff3e,
01c4,
ff6e,
fec2,
0192,
02d5,
026f,
fc19,
02e1,
fce5,
ff6c,
0107,
049f,
fee4,
01ef,
ffc0,
fe0b,
fc1f,
fb18,
fbd2,
fd16,
fc2e,
00d6,
fec1,
fee9,
ff3c,
019e,
0449,
fe43,
0065,
ffeb,
029d,
024e,
04eb,
03c4,
0149,
ff13,
00e5,
011d,
03e5,
02b3,
0a25,
054b,
0080,
f8d6,
f5c9,
fb3c,
f5e4,
f518,
f5e8,
fa89,
fcb6,
fe00,
fbdc,
042f,
036a,
0519,
0415,
ff24,
fe32,
02a9,
03d0,
fee5,
fe08,
fe62,
02b7,
0556,
090c,
035e,
071c,
091f,
04b0,
fb88,
f7b1,
ed40,
f390,
ef46,
eef3,
f543,
f6dc,
f9b1,
0139,
0034,
fad2,
fe83,
0306,
03c6,
fd7b,
fe7d,
00bc,
fcb3,
0032,
ffdd,
02db,
0a48,
0d9c,
0b68,
0c27,
1049,
0ea9,
09f3,
049e,
f708,
eec4,
f3d3,
ead8,
eaf2,
f1a0,
efc3,
f5b4,
f774,
fb9f,
02c9,
024f,
feef,
fee4,
03b4,
ffde,
fe3e,
00e1,
fb7f,
02bf,
05a1,
0d3f,
0a12,
068f,
0960,
0bef,
fe59,
fe5d,
0161,
00b3,
01d9,
fc70,
fd80,
fc56,
fe56,
fccb,
fa9b,
00fa,
fbf1,
fc7f,
01e5,
0158,
fe7a,
01fb,
0265,
f47a,
03f6,
0132,
fdca,
03f1,
0353,
f9cd,
f6b2,
fbf8,
f5f2,
0493,
07f4,
03a2,
077e,
052f,
fd9a,
fc9e,
f898,
fb6f,
fc2f,
ff12,
fc28,
014b,
02b8,
fed8,
0293,
fdf3,
fd90,
fa86,
00d9,
fdb8,
03bb,
fcc3,
fe5f,
face,
f802,
f570,
014e,
080b,
06c7,
0a71,
0341,
04bd,
02e0,
ff2a,
f950,
f720,
f766,
fb45,
0527,
02d5,
03c0,
fcda,
fed9,
00b1,
005c,
ffa3,
0243,
fd0d,
fa41,
f6a6,
f65d,
f3c5,
f982,
ff60,
0690,
05ae,
09d4,
0747,
0161,
031f,
0394,
00d3,
fd68,
f97f,
f5e1,
0265,
030b,
0029,
fcf0,
ff2a,
fe7c,
0025,
0081,
091a,
04fb,
04c9,
fa6c,
f791,
f635,
fcca,
fa52,
02b2,
0288,
fe1a,
062b,
00cd,
00ad,
0043,
0ae5,
05e9,
fd9f,
f923,
fc51,
fdf4,
fbe4,
0464,
028a,
03c9,
05a4,
06ee,
01c2,
064b,
0139,
0b6f,
fab5,
fd6e,
0302,
004e,
ffbe,
02ca,
fdd1,
ff7c,
f6d8,
fb6e,
fba9,
0824,
12c5,
0865,
01b8,
0205,
fc2c,
004f,
0421,
fddb,
02c4,
fced,
0251,
07ea,
01d2,
04dc,
0083,
0448,
06b9,
065f,
034e,
fe2d,
f8e0,
f447,
f7d7,
fcfa,
fa73,
fa0c,
fe25,
0778,
0d16,
00a0,
ff31,
fbc6,
fc06,
010f,
0255,
02b6,
fc7c,
fd02,
028e,
073a,
04c8,
0127,
fe81,
0384,
0411,
0415,
0692,
fc54,
f4e1,
f7c3,
f522,
fed1,
fc5b,
fde2,
05b0,
0ab6,
06e3,
00f7,
0689,
01e2,
0377,
03f5,
fd6e,
ffa0,
024f,
fdde,
040b,
040f,
0394,
ffcf,
0124,
02c2,
fa56,
fa3c,
001d,
006c,
fc1f,
faa6,
f936,
ff83,
f65c,
fe48,
0661,
0861,
0843,
0610,
0060,
0043,
0a72,
005b,
0044,
fe66,
04c9,
fdda,
ffa3,
039e,
033f,
f991,
fb64,
fd03,
fc10,
0156,
fdb0,
ff26,
013f,
fc75,
fb18,
07b1,
0127,
0a52,
0bb9,
091a,
0544,
02d8,
007d,
0279,
0976,
02a7,
fffd,
041a,
02b5,
02e2,
ffd6,
ff9a,
006b,
0470,
0335,
fac6,
01ad,
fc75,
fe07,
f940,
ff29,
f915,
fd2e,
fe4f,
052f,
0aff,
06f6,
0009,
0616,
fe95,
fc2e,
f8ad,
043b,
03fb,
00b5,
fe6d,
04cb,
fd14,
fba3,
0041,
059a,
0229,
fb6b,
f863,
fd3f,
fed2,
ffda,
0030,
fef0,
fadc,
fab6,
fc18,
003c,
0529,
04ba,
0644,
ff50,
f71f,
fba1,
fbbd,
0889,
04bb,
015d,
054a,
02da,
00f3,
01d4,
026a,
02a2,
027a,
0345,
002c,
ff32,
0031,
0789,
09a7,
0488,
fe18,
f955,
fe01,
ff49,
0491,
00ea,
06fb,
0054,
fe4c,
fea5,
fc54,
03ed,
000c,
02b6,
fddc,
0417,
02bd,
0477,
01f0,
0457,
f9f4,
f93f,
f956,
fa84,
03d9,
1238,
0958,
030d,
f6f7,
fb33,
039e,
ff1a,
fb20,
f971,
04a4,
02db,
fb11,
fa92,
fb48,
ffdd,
0059,
ff50,
00e3,
045d,
fc74,
0136,
03d4,
fd24,
f82e,
f32c,
f8e8,
ff56,
01d0,
0f0c,
08c8,
04ac,
f581,
f8b7,
fcc1,
fb50,
fae0,
f6c8,
fb6e,
fd55,
f926,
fccb,
fd58,
00cb,
fc56,
fd66,
03e0,
ffdd,
047f,
ff18,
046f,
016a,
f9b3,
f28c,
f4fa,
f733,
fbbd,
0417,
0666,
ffe7,
02d4,
0680,
fe9e,
fa99,
f6a8,
f439,
faba,
f6e8,
f2bc,
f4f6,
fbdc,
03f3,
fcdf,
01c9,
fe39,
000d,
04cb,
fe7b,
fffe,
fed5,
fe80,
fb67,
fb9a,
f71d,
009c,
0362,
047e,
057a,
07b0,
0473,
ff21,
f5b9,
f4fd,
fe36,
f6d8,
faa3,
fab8,
fa1f,
fdff,
fc41,
029d,
fe3c,
fc7b,
01f1,
fe5d,
fd6e,
0069,
feb3,
ff28,
fd21,
0012,
fbec,
f661,
fe26,
043a,
0529,
073c,
fc58,
f982,
f715,
fb13,
fba6,
00ee,
0189,
f8f4,
fdf0,
feca,
0291,
fd7d,
fd8b,
0261,
03c0,
fe18,
0161,
fc02,
0222,
089b,
0813,
f9f6,
fbd1,
fa22,
fb92,
0017,
05d0,
0399,
00b5,
015a,
fc52,
facc,
fd46,
03b6,
057e,
01fa,
fc1c,
0408,
fea8,
0370,
00a9,
01f5,
ff35,
04e2,
03a3,
ff0d,
0726,
03df,
0579,
058c,
fddb,
0043,
091f,
0791,
031a,
f99e,
ffb0,
02ed,
f995,
fbdc,
fa5d,
fd9e,
00f4,
01f8,
fb1d,
00fa,
fcd8,
fe35,
ff6f,
0193,
ff3c,
04af,
0093,
fcd2,
03fd,
fb75,
05a3,
03c4,
04be,
08ed,
0775,
03df,
fdb6,
01d0,
081f,
fd07,
0142,
019c,
0325,
046b,
ff61,
00ed,
023d,
03e4,
fde4,
ff06,
035b,
0255,
00ac,
03ba,
01cd,
023a,
026a,
007d,
ffcb,
007e,
01a9,
03c9,
02d0,
04cc,
04b3,
04a0,
fd74,
feed,
ff6c,
01bc,
037a,
0139,
0217,
03ac,
fd2b,
025f,
03b0,
ffdf,
fe52,
fcd1,
0158,
fed1,
ff93,
00ce,
ff6b,
0501,
ffc6,
00cc,
fe61,
0310,
fe3d,
00ef,
054e,
05bf,
01bc,
01cb,
05b6,
fe97,
0331,
028e,
0595,
0512,
fe3b,
fdf1,
003b,
fd9b,
fff2,
04b3,
030e,
01a9,
0535,
0163,
ff9c,
fe7b,
02f4,
03b1,
01cd,
fe83,
04e5,
fe78,
fee9,
0093,
0202,
fd06,
fb5f,
02f5,
01f4,
fcce,
fc7d,
02b1,
fcbc,
00b3,
02b4,
05a9,
03f2,
062a,
05bb,
fd3f,
feee,
fee4,
0246,
0034,
fe1e,
ffa7,
0107,
011f,
fbb0,
002c,
fa63,
ffe8,
fd55,
ffe2,
f950,
fb2e,
f98f,
fc4b,
0163,
fb73,
0240,
00f3,
ffa4,
030c,
02e9,
0110,
01b0,
0563,
0321,
014d,
0096,
fd6c,
fc35,
fedd,
fff6,
fe66,
fc25,
fe73,
fc69,
fdf8,
fbe7,
fee7,
0016,
fea2,
02b3,
0012,
0155,
fb7a,
fbba,
fc23,
fc73,
015e,
05c0,
061f,
fd3b,
fee6,
fd18,
001b,
01bb,
fc47,
02e0,
f966,
fe91,
f83e,
f69d,
fec3,
fdfb,
006e,
fd4f,
fcfd,
02e8,
fce8,
fa86,
ffca,
0027,
f631,
ffbe,
0461,
06f5,
046b,
007b,
04ce,
00ee,
022d,
fdda,
021e,
0403,
0493,
ffe3,
f8d1,
fbf6,
fa66,
fa4b,
013c,
0528,
07a5,
fd94,
01ba,
f894,
fb55,
f84e,
f1f0,
f701,
f8e5,
f8de,
fe88,
0157,
015b,
ffbf,
ffc3,
0422,
057b,
fd77,
0616,
0234,
04da,
00f3,
fa44,
fa90,
f364,
fb0a,
082d,
02e9,
ff98,
fa4a,
f5c1,
f870,
f638,
f8fc,
0035,
049e,
0445,
0cd0,
ff80,
01d0,
040c,
0482,
0475,
fe29,
05b8,
0004,
085e,
0120,
f7e3,
0054,
f648,
fe1b,
004c,
0bb2,
0a97,
0334,
03fe,
fa93,
f4bf,
f8a5,
fc88,
018e,
0352,
05d3,
0b19,
0b59,
0cc1,
fc50,
fce7,
02af,
fd4a,
04b7,
0539,
0476,
078b,
00b8,
f909,
fe96,
ffab,
057f,
06cc,
031f,
0464,
066a,
009b,
fcc1,
fe0e,
00a4,
0404,
023e,
0707,
fe83,
02b2,
02b6,
0356,
0826,
0086,
04d2,
0463,
0603,
03f2,
ff09,
fe31,
fbb4,
0101,
03e9,
fe13,
0353,
023c,
0094,
00f0,
0476,
037a,
0194,
ffa3,
0201,
0934,
044f,
0413,
00ae,
0035,
ff5a,
049e,
0929,
fe46,
ff13,
ff21,
01be,
02f1,
01d3,
fced,
fa7b,
f792,
ff1a,
fa11,
00ec,
ff9e,
03fa,
0497,
fe73,
fb4c,
f6fc,
f9e7,
02eb,
09bd,
0a25,
04f8,
083d,
029c,
fa0d,
f7fd,
fd44,
03f4,
ff1f,
036f,
ff75,
ffef,
013d,
05ea,
fed8,
f4a7,
f7cf,
01bf,
02b8,
03fc,
06a5,
040c,
00f2,
fb57,
f256,
fa3b,
03cc,
0383,
028c,
05c5,
fe7c,
01c6,
f85e,
f71a,
00ad,
fca9,
01e3,
feda,
001e,
04a0,
0055,
fe25,
f93c,
f5ad,
fc8a,
000f,
0514,
08d3,
0831,
0ae1,
fef7,
f607,
f5e6,
ffab,
fd05,
04e0,
fec5,
fd66,
fd2d,
fca8,
fd00,
f8bb,
0354,
04b8,
054c,
ffe4,
013d,
04aa,
fef0,
02c6,
fb24,
f938,
faec,
09ff,
0a7f,
0a4a,
0577,
02c2,
f747,
f149,
f927,
fe61,
fefe,
f8d2,
f8cd,
ffd9,
09eb,
ff15,
ffb5,
f9b8,
0173,
0655,
048b,
03ce,
0006,
fd6b,
04e7,
ffaf,
0031,
fb7b,
0044,
0ab1,
0997,
016c,
05f1,
f9f3,
f238,
f687,
f713,
fb7a,
011d,
feb3,
fbb1,
0a45,
0719,
f882,
fc9b,
fe88,
fec7,
fdcf,
ffc9,
ffa2,
019f,
fe3e,
fe69,
053e,
ff93,
0087,
fed1,
071b,
00f4,
0529,
016e,
fb53,
f1fd,
f31e,
f699,
fb74,
f869,
fcfb,
03b6,
03f6,
00ea,
fac2,
0282,
fffe,
f7bd,
f7ec,
04b1,
fe68,
02e1,
03af,
fd57,
fb51,
ff05,
06e1,
03c6,
05ad,
0450,
fdf9,
fddc,
f882,
f1d6,
f7a7,
fa25,
fda1,
fea7,
02cc,
0443,
050d,
044f,
fbc3,
fed7,
f5b2,
fa4e,
f7de,
007a,
0264,
0215,
0418,
fe4c,
ff31,
f7fc,
0116,
0bcf,
069a,
014c,
00d0,
0567,
f9bf,
f2dc,
ffab,
0216,
fdcf,
0129,
00b2,
084b,
ff8a,
0114,
fda1,
00d1,
fc45,
02e3,
f89e,
0225,
053e,
01f3,
02e8,
fe1d,
f896,
f865,
fb5d,
008e,
08c7,
02ef,
ff12,
f9e6,
fec7,
fa30,
04f9,
004b,
03c8,
005b,
0421,
0000,
04e9,
02fd,
fc0a,
ffc4,
f92d,
f55c,
fad5,
fd10,
0153,
05d5,
048b,
fd93,
006f,
fbb7,
f52e,
f966,
fd3c,
ffaf,
f79f,
f5d1,
f7fe,
0139,
025b,
0495,
f993,
fb6b,
fbf6,
fedb,
00d9,
fe3d,
f77c,
f655,
fd94,
f95c,
046d,
04db,
00dd,
fe51,
00b8,
00c6,
fbc1,
f91c,
f7f7,
f996,
f739,
f383,
efbf,
f0d0,
fce6,
0723,
06c1,
f451,
f2bf,
f917,
f846,
fc85,
02e0,
f93d,
f4cc,
f789,
0303,
fd6f,
fe61,
0478,
fe41,
fd4f,
fea7,
00e6,
feb1,
f748,
fbf4,
f8e8,
f435,
f617,
fb8f,
fa14,
068b,
0834,
fa59,
f095,
f25f,
f847,
f7a3,
f7f5,
fe85,
f8e0,
fce8,
f944,
04c5,
03f7,
ffb8,
ff3e,
ff09,
0557,
0300,
02d4,
f9ea,
fc2f,
faba,
f959,
fad4,
fd5d,
fc69,
0551,
0b98,
07fb,
fbdf,
f37e,
f40b,
fa35,
f5c5,
f872,
f68d,
fcf4,
fd79,
0038,
0623,
06d1,
02fc,
04e4,
062d,
02f2,
ffbf,
fffb,
fd1d,
f902,
fcbb,
ff16,
020e,
f97d,
0497,
0c1b,
0567,
022c,
fe4f,
ff35,
fbda,
fa5f,
f4ea,
f8e2,
f666,
faaa,
fd49,
fa09,
00a0,
fd86,
050e,
0549,
062f,
053e,
00a9,
fe6f,
fd38,
fe9e,
09b2,
02ea,
05d6,
0239,
0017,
0464,
ff8d,
0483,
0008,
feac,
fce8,
f613,
f84f,
f24e,
fc4c,
fed5,
0288,
fb56,
ff18,
0305,
ff7a,
038f,
0050,
fdbb,
fdfc,
042d,
ff74,
ffb1,
024d,
fb57,
febd,
ff01,
0358,
fd79,
05fc,
0545,
003c,
0575,
03dc,
fba7,
fce7,
facd,
ff3d,
fe7d,
fdd2,
044e,
fe29,
04b0,
061e,
fed8,
01ea,
0072,
0482,
fd1c,
0145,
02a1,
fdb1,
021d,
ff19,
01a5,
06ac,
0391,
fdd1,
025e,
08a0,
0bac,
05e4,
0139,
0349,
fe7b,
0845,
0545,
ff52,
0417,
0315,
febb,
0459,
00ba,
03a1,
043c,
060e,
016d,
05da,
fe40,
fe01,
0462,
03bd,
0387,
fd8f,
04c7,
0636,
01ac,
02ee,
03ef,
01ea,
fddc,
0091,
0171,
056a,
0411,
0318,
fea2,
ff47,
fe11,
ff04,
fd28,
006e,
ffb7,
042e,
ffeb,
0426,
fe79,
fdd2,
0505,
03ea,
04a2,
03fd,
fc68,
fee5,
01c9,
01c1,
0274,
0449,
fc69,
0380,
fd76,
03f0,
0100,
0458,
fc90,
fe74,
0472,
fea2,
02cb,
0262,
01fc,
013c,
02ee,
03db,
fe15,
01f0,
02b9,
04d2,
01cf,
02c0,
02fc,
fead,
03a3,
0000,
fd5c,
fca9,
fd22,
050c,
0034,
fe30,
009d,
04a9,
fdd1,
fd46,
01b1,
fd62,
018e,
0504,
0526,
fdb4,
fcee,
03c0,
00dd,
014f,
054b,
0319,
fff3,
00e1,
0707,
0369,
0830,
0d1f,
056d,
06f1,
035e,
03c3,
0497,
003e,
03e7,
00e6,
00d5,
046b,
0070,
0135,
0315,
ff47,
ffcd,
03f4,
0448,
fc42,
008d,
00f2,
005e,
00e7,
ff1a,
04ae,
0880,
0a62,
0aa0,
07e1,
04ae,
ffe5,
004e,
f741,
f4ee,
f691,
fb6e,
fed7,
fd7e,
04dc,
0227,
0082,
fdc2,
ffd8,
048a,
0514,
0169,
fc8b,
fde7,
fd0c,
fe33,
03f4,
07f1,
0a17,
0c40,
09d2,
0cb9,
0f24,
108d,
ff75,
f624,
f20e,
f28d,
fa8b,
f333,
fac3,
03de,
06af,
01fc,
fd4c,
0392,
fcd9,
ff5d,
fe26,
04ec,
013f,
fe73,
fcaf,
fe23,
0861,
0f22,
056a,
06d0,
057c,
072e,
fb01,
f852,
f0e1,
e872,
e7fa,
e8ea,
eea6,
f8b0,
06b3,
084b,
05d3,
0390,
05ed,
00d6,
fda4,
fccc,
0474,
03b7,
fdb1,
fc63,
fac4,
fbcd,
00b5,
0ed3,
0b77,
0431,
0883,
0545,
f94e,
ed7d,
e20b,
e495,
f053,
efea,
f6d3,
030d,
036c,
0775,
0edf,
0253,
0257,
0453,
02ed,
0530,
fcfa,
038a,
fba3,
fcdd,
fef2,
fbd9,
fea6,
0bd5,
07fe,
0ba0,
092e,
0281,
f17b,
ecee,
eaeb,
eb0c,
f6bd,
045b,
fb16,
fb9f,
043d,
0d03,
0063,
0238,
0256,
035f,
0329,
056d,
fef0,
fdef,
002c,
fe48,
00dc,
fc9b,
00cd,
0aa6,
0d98,
04f8,
0609,
061e,
f6ae,
e83e,
e9ed,
f41e,
016a,
00a9,
fd32,
051b,
06a6,
0411,
fa88,
f87b,
0233,
02b9,
00ae,
ff6a,
01f2,
fd4d,
00b0,
fe24,
f509,
fb04,
0290,
02de,
0df5,
08b8,
0dec,
0211,
eee6,
e922,
f7c9,
0604,
0395,
072f,
02bd,
0cca,
0c9e,
00e7,
026f,
fcbd,
fda5,
fd82,
fe57,
0149,
ff74,
019c,
ff5e,
fd11,
f7b8,
f15b,
0431,
02d9,
092e,
087a,
0a4c,
030a,
e69d,
edaf,
02ca,
0317,
07b7,
0378,
0be4,
01a4,
039c,
fbde,
fea0,
0025,
fc58,
fa70,
fdfe,
0146,
036a,
0382,
ff20,
0047,
fa46,
f373,
ffd5,
fdd0,
08cc,
0b8a,
0a44,
fce5,
f06a,
fbd5,
0153,
079e,
04e6,
0130,
016d,
f941,
fc6c,
fc24,
ff5f,
0405,
ff53,
0014,
0190,
04ba,
050c,
fd00,
f8a9,
f9e8,
f3a1,
f743,
f404,
02f1,
05d0,
0428,
0b81,
0412,
fc47,
0055,
0420,
05d4,
04fc,
03a9,
ff3d,
016f,
087a,
fe8c,
0615,
0be3,
020d,
ffd8,
ff76,
0366,
0210,
042b,
0018,
f30f,
fc83,
f7f6,
f5eb,
fc86,
04a1,
fa3a,
00ad,
fd36,
faf4,
fd01,
0291,
fd9e,
ff8e,
0657,
0abc,
0215,
020c,
0478,
0d19,
06d6,
00a7,
ffa4,
fc1f,
034f,
028c,
04c9,
fa0a,
f556,
fdd2,
fcd9,
fb30,
fc92,
fb16,
fae9,
01df,
fba3,
0388,
0125,
fd3c,
00a0,
0188,
06c7,
0c3a,
fe04,
08bb,
02a7,
0609,
04e7,
0305,
fabe,
028a,
ff96,
0164,
fcc9,
fff9,
027b,
0022,
00c7,
fe51,
0901,
fcf4,
fabf,
fcc3,
041e,
0c61,
08ac,
0018,
feeb,
fa07,
fe31,
fd5c,
f7a5,
fdac,
0562,
0388,
fdee,
03f8,
fd1f,
fdba,
04ee,
ff3f,
0002,
0348,
fe13,
f7ed,
02e6,
ff48,
04c8,
f750,
f9cb,
0477,
0913,
0e13,
089b,
feff,
0081,
f8ec,
00e0,
feb6,
fb13,
fd1c,
fdbe,
05d3,
fdfb,
08a0,
fef7,
fe66,
fcfb,
04f9,
0292,
ff2b,
014a,
fe82,
fafc,
ff15,
0295,
f7c0,
f362,
0432,
0926,
10b6,
0abe,
fcff,
006a,
02e3,
0805,
06c5,
f515,
fe41,
02aa,
02a8,
0481,
012a,
fd17,
fcd2,
00e5,
01e3,
fdbe,
05e6,
0462,
f6e5,
f738,
fd6b,
ff95,
f747,
fed6,
050c,
0e2f,
0f87,
0ac1,
fcb8,
f6d3,
fc74,
0313,
fd8f,
f5bd,
fc6f,
fe53,
fe64,
053e,
082f,
fc44,
0311,
0481,
034c,
fd58,
ff61,
f89f,
f5f2,
fb42,
f835,
ffc0,
fdd4,
0210,
0b1e,
1571,
0c5a,
0473,
f9d1,
fb83,
fcab,
ffa8,
f96b,
fc9b,
fcb1,
fa8e,
0569,
fbd9,
fe57,
0004,
01d7,
0035,
fe30,
0186,
014c,
fc84,
f28e,
f5fa,
faf2,
f573,
00ea,
ff5c,
09e9,
14e7,
1040,
05ea,
00fe,
fce0,
0105,
014f,
fe6e,
fd1b,
fb6d,
f8e6,
f9e2,
f94f,
fec0,
0422,
031c,
ffff,
fcb2,
052b,
ff6e,
f785,
f61a,
f300,
ff53,
fe19,
03a5,
ffe7,
0f13,
0f3a,
0fea,
073d,
02b5,
f957,
0517,
037c,
022c,
045d,
fae4,
004a,
fc22,
fdfa,
020f,
fce3,
0072,
fd51,
fe16,
ff29,
ffb9,
fbb4,
fc39,
fbb9,
fafe,
f78c,
fd4f,
ff91,
04c7,
fdd7,
0738,
ffe1,
ffaf,
039e,
00ad,
fd29,
0034,
fca5,
fc5a,
fd06,
f6d6,
f80c,
01af,
00e4,
ffc2,
0143,
0093,
fdde,
fba7,
00eb,
f9b8,
fb5f,
f2f3,
f42b,
ef34,
fb00,
f79b,
03a7,
026b,
ffa6,
02b2,
0061,
0075,
f8d1,
f8ac,
f473,
fedc,
fc5b,
f62e,
f890,
fe0b,
0214,
fd6c,
003a,
001b,
0188,
02b0,
fcc7,
fd21,
f2c9,
eead,
f109,
fb82,
fb5e,
fe0d,
06d1,
089d,
09bf,
01b3,
0667,
fce4,
f833,
f81f,
f4cd,
fd8e,
ff84,
fcd5,
02b7,
ff4a,
ff04,
01c8,
fcf5,
0483,
04de,
ff55,
ff1d,
fd41,
f82d,
f6f4,
f106,
f14b,
f963,
ff64,
005e,
ffec,
0192,
05fe,
0705,
0231,
034c,
0355,
f9b8,
03a4,
0045,
fde0,
0273,
fcdf,
00eb,
02cf,
fe79,
006b,
fda3,
04b7,
fd8a,
fff5,
0050,
fbbb,
f556,
f60b,
eed4,
f97f,
f7aa,
f338,
eabe,
f190,
f895,
f9fd,
f8a9,
fb04,
f9d0,
0138,
04d1,
0386,
005c,
049d,
fc1d,
fe8c,
02a5,
04f6,
0137,
ffc0,
fce3,
fe15,
fd64,
fbd3,
fc3e,
fedc,
0267,
0043,
fcb5,
041d,
0252,
0181,
fdcd,
fb7c,
fdaa,
01cf,
0284,
02bc,
fbcc,
fdc3,
fc27,
fe73,
fee0,
01bd,
00ab,
01bb,
0313,
034a,
0045,
fd95,
fec0,
058a,
04ba,
fe92,
01e6,
0361,
fe9c,
03cf,
ff2c,
fc6b,
006c,
034b,
fe4d,
01ca,
0150,
fdb7,
feb0,
01c3,
0414,
fe68,
016b,
fe91,
02b3,
02af,
03ec,
01ca,
0339,
0074,
fe62,
0039,
05c3,
0427,
ff1f,
005d,
0155,
ff56,
002e,
ff0f,
ff7a,
02f1,
fd70,
02fe,
008a,
04fe,
fdb3,
0028,
042f,
0518,
025a,
fe56,
02e4,
ff35,
0303,
01fc,
0062,
050d,
04a5,
0333,
07db,
020a,
fefc,
0017,
fdab,
fec7,
fe4c,
fe60,
fcac,
0117,
0077,
002e,
02b6,
fdeb,
024b,
032f,
0415,
02d0,
fcd5,
04cb,
0574,
0222,
0223,
fe10,
ff70,
fe5a,
0509,
05ca,
03df,
0765,
05f5,
0ab4,
ffa5,
fbd9,
0020,
0672,
04ac,
0848,
010c,
07a9,
022a,
ff67,
00be,
025e,
0507,
fbe8,
03aa,
0205,
011c,
043f,
01b7,
0380,
0486,
066f,
011e,
036e,
07a3,
071d,
0932,
05e4,
00ab,
fcff,
fd41,
f88e,
fcfb,
fbde,
0314,
ff77,
fd53,
fc01,
fcd8,
02c8,
02c2,
fe8f,
fff6,
04ef,
0218,
ff2d,
fc74,
0491,
0577,
fd47,
ff96,
01af,
fa7f,
00e6,
00f8,
fce0,
02de,
fde5,
0026,
fdfc,
03db,
0131,
fde3,
ffcd,
febd,
fa07,
fc16,
01e7,
03ae,
0524,
046e,
03d7,
015a,
048b,
0050,
038a,
011f,
0123,
ffbf,
fa05,
fdec,
02ba,
038e,
0082,
03d3,
fd8f,
00dc,
0297,
007f,
001d,
0145,
0112,
00d9,
fb75,
f9af,
fe45,
faab,
fe91,
04fa,
fea3,
fc91,
04ad,
fdc6,
0124,
0b9f,
0ad7,
0002,
fef5,
fdd7,
044f,
036a,
fd15,
0282,
fc3a,
ff82,
ff8a,
fcd6,
0138,
0546,
03d6,
0511,
fe06,
042d,
fdff,
f8d4,
fc6f,
ff1c,
fd88,
02d5,
0034,
ff2b,
0052,
0e3f,
0d7c,
00c0,
0795,
017c,
046b,
fd4b,
fe0c,
fb13,
fe74,
fe92,
fad6,
fd24,
fc37,
00b8,
059e,
06ba,
03bf,
01ab,
fd61,
fb02,
ff6f,
03dc,
024f,
feda,
04e8,
01f0,
fdfd,
017f,
093e,
0685,
ff39,
0013,
ff89,
f262,
ee38,
f456,
ff33,
fe76,
0475,
ffaf,
009b,
01c7,
069a,
ff8f,
03af,
0011,
fa41,
fa03,
ff0b,
0524,
0277,
fd3b,
ff56,
fd0b,
00fd,
016a,
fe1a,
f90e,
f9f9,
f679,
f434,
ee2b,
eb0f,
f716,
08af,
0788,
0292,
f9a5,
fe89,
fd25,
fedd,
0160,
f741,
f96e,
fad8,
0051,
fc01,
fdb3,
0444,
02c4,
0474,
fed2,
031a,
0709,
fdd7,
f195,
f050,
f59a,
f7ca,
f524,
f418,
0609,
0a4b,
0790,
02ae,
ff7e,
0107,
fe7a,
fa46,
f3e1,
f3fe,
f62d,
fab4,
0431,
0418,
fea1,
01ce,
020f,
fd90,
02e0,
fe35,
0153,
00b1,
faf4,
f9d1,
fc4f,
02cb,
fd4b,
0122,
0886,
07eb,
0d0f,
0590,
0191,
fe89,
fdb1,
f7a9,
f597,
f77c,
f1a9,
f904,
0432,
fede,
01e7,
fd42,
fee1,
ff7c,
034d,
0041,
fdc4,
ff68,
fe84,
f8df,
0133,
04a6,
04c5,
034b,
00bb,
065f,
0605,
016a,
fb07,
0546,
0034,
f930,
ffd6,
0276,
fc2c,
0030,
fd7a,
01d4,
012b,
01db,
04b8,
0286,
007e,
007c,
fe07,
fd44,
02f2,
04ac,
0343,
0239,
fb2e,
0287,
00bd,
0313,
fd1a,
fb51,
0107,
0437,
fd25,
05be,
03de,
04b6,
fd85,
fd3e,
02eb,
0387,
002e,
0183,
03a2,
fddf,
04eb,
01c6,
0103,
0120,
043b,
02a3,
031f,
fd19,
f922,
01b2,
ff73,
fe88,
fd37,
f539,
feec,
00d5,
0593,
05f3,
0346,
0943,
0207,
0091,
0250,
0801,
fe16,
021e,
fd7b,
ffd4,
05e7,
fc0f,
0216,
001d,
0419,
0372,
0021,
f558,
faf8,
fe31,
ffd6,
ff05,
fc71,
fa74,
f99a,
0442,
053d,
05cd,
079e,
1095,
0cad,
0c95,
0806,
03a7,
024b,
016b,
014f,
0586,
03c4,
0542,
04c6,
0475,
01f4,
0351,
fc73,
f205,
f4b0,
fdce,
00ef,
027a,
f96e,
f73e,
0088,
04f6,
02c9,
0071,
058c,
0c39,
0d0c,
0466,
fec0,
fb46,
fc35,
fd77,
01c8,
0111,
05ab,
05fb,
046c,
0a3c,
0524,
fd84,
0063,
f82d,
f83e,
0391,
06b6,
0586,
fabd,
0332,
02e9,
07b3,
00b3,
fcc8,
025c,
0791,
00fc,
0060,
fb02,
fdeb,
fec7,
043d,
0069,
023a,
01ad,
075c,
0610,
0520,
0518,
fd07,
ff1f,
fecc,
fbff,
016d,
fcd2,
0100,
03fd,
ff5f,
01e0,
092a,
08bc,
f998,
fa86,
0935,
0d73,
0863,
fd63,
fe64,
fe59,
04a5,
01dc,
042b,
05a7,
01b7,
02d1,
fe0d,
03f8,
fd40,
fee9,
054a,
fd7c,
0132,
005d,
f879,
fdcf,
07c2,
06ae,
09f2,
004f,
fa3e,
fcc9,
0213,
0cb3,
0820,
0144,
fccc,
014b,
02a0,
0362,
023e,
0296,
037f,
02cb,
0255,
00bf,
01b5,
014f,
fc96,
00fe,
01fa,
ff46,
ffc7,
03bc,
fc95,
035b,
0440,
0107,
00e4,
06ab,
02c5,
052a,
034b,
fb0f,
fd34,
0182,
00c2,
0282,
ff73,
05c2,
0464,
0707,
ff91,
fe10,
0348,
fd96,
0151,
00ea,
064b,
fc76,
fccc,
fedd,
fa1c,
fa03,
fb9c,
ffff,
02e1,
fe6b,
01ce,
fbce,
02b6,
f863,
faf7,
01ca,
fe4e,
021e,
050e,
fcf1,
0773,
03d7,
050d,
fd34,
05ec,
03b9,
065c,
0413,
0182,
048f,
0023,
fc64,
fb75,
fbbb,
fac9,
f8ae,
0492,
ff5c,
fec1,
0054,
fc9a,
fc97,
014d,
00d1,
0325,
ff1d,
fcad,
0091,
0169,
00d4,
05db,
0338,
ff9e,
059d,
02b7,
0641,
0805,
027f,
0354,
0181,
f66c,
fa44,
f46b,
fe6a,
fb68,
f88f,
fdb7,
fd76,
fcb4,
ffa2,
03a2,
01da,
0263,
0499,
fcda,
fd0b,
042a,
022d,
0635,
035b,
04d5,
006b,
044c,
07dc,
04cc,
04bd,
03ed,
014b,
fc66,
faa2,
fe10,
fe41,
0157,
02ac,
fd5a,
0112,
03d7,
ff06,
0386,
023d,
019e,
fd27,
feeb,
0349,
0153,
04e6,
01b0,
fe3d,
01ac,
010c,
0020,
040c,
fd32,
ff66,
ffd0,
fb4f,
0006,
0486,
0363,
fe62,
ffba,
fcef,
ff8c,
01d9,
fdd3,
fed9,
02ae,
ff76,
0092,
fefb,
0001,
02f7,
002e,
0143,
ff7b,
053e,
ffe4,
fddc,
fe45,
027e,
0487,
00c0,
ff17,
ffc3,
feb5,
0087,
0344,
0053,
01a0,
0214,
0049,
fee9,
fe72,
ff9d,
037c,
fe51,
ffc0,
fce6,
fe39,
042b,
fd3f,
0376,
fed0,
fc5e,
fe97,
02c6,
04a4,
0555,
0184,
015e,
052c,
0190,
ffdc,
0308,
0493,
0552,
04b2,
0344,
021d,
0145,
046e,
0462,
003f,
01fe,
033e,
fe85,
0127,
039c,
fc74,
04a1,
ffe8,
fd1a,
00ee,
01cb,
fe2f,
fe9a,
ff48,
0138,
047b,
ff35,
05c8,
ff1c,
009c,
0265,
fcf3,
fd85,
01e4,
fe80,
fee1,
0214,
fe9f,
0109,
fd6f,
fcf9,
ff6a,
00c5,
fe0a,
0427,
0085,
fd47,
ff68,
0183,
feef,
0377,
0735,
03a8,
01cc,
0625,
06d1,
fea9,
0518,
0466,
007c,
0314,
feae,
02c7,
0087,
00f2,
0274,
fff2,
0098,
fe9b,
00f6,
042b,
0129,
fe33,
ff12,
ffeb,
05a6,
fde0,
046e,
03db,
074c,
004d,
05a0,
02b6,
f73b,
006a,
fe5e,
ff55,
f8ef,
f617,
ffc9,
feda,
fe44,
0436,
ff53,
fee8,
fe74,
fde8,
fe70,
0198,
fd1f,
0229,
0256,
0114,
fef1,
fe8f,
0133,
01bb,
ffa8,
066e,
ff33,
025a,
04c2,
0171,
ff6e,
f9cd,
f0e3,
f7e4,
fefa,
02b0,
fa98,
021b,
018b,
0324,
00ba,
fe85,
0052,
02b1,
0510,
fff9,
0040,
feb8,
f983,
f944,
fa4f,
02cc,
fd33,
fa4b,
fbc6,
fc36,
0180,
fbf3,
f9ac,
f9e8,
f6a8,
efc4,
fbc2,
fbc0,
f699,
fbda,
fe38,
008b,
fd2c,
0133,
fd3c,
032c,
feff,
ff24,
02a2,
00a9,
f893,
fb5d,
00be,
fbb6,
fe39,
00e5,
00a1,
fc54,
0212,
08c4,
0456,
024e,
fa2d,
f889,
fb0e,
fd36,
f703,
f678,
fa1c,
04da,
03fd,
01f3,
fd18,
02d8,
fe6c,
ff5d,
f974,
fa3a,
f878,
feba,
fd82,
ffad,
fd4e,
fe4e,
00fd,
feab,
0542,
0bdb,
06cb,
015c,
fecc,
fcaf,
f9f1,
f94d,
f4bc,
faa6,
fe4a,
fce8,
fcc1,
fc8e,
02ba,
001e,
0269,
06b3,
fdc5,
fb39,
03aa,
0561,
01f5,
02c2,
0107,
f92d,
f9e4,
fe08,
076c,
0905,
07b8,
096b,
02f3,
fd9d,
0057,
fb3c,
f4f1,
f187,
fab2,
fc7d,
ffd8,
03c9,
fd13,
fd58,
01d5,
046a,
0095,
012b,
0103,
fdcb,
018a,
fd4a,
f970,
fbb9,
fcb4,
01d5,
07b3,
0a70,
0db1,
0800,
0410,
02e4,
01ca,
fa94,
f6fc,
f555,
f6ea,
fec2,
04d3,
021a,
016c,
0086,
ffeb,
081d,
0b17,
074e,
06f4,
00cb,
0669,
00e0,
f8b3,
f321,
fecd,
00d2,
028f,
06ce,
0b85,
05a4,
0294,
fdbf,
ff7e,
ff41,
f48b,
f12b,
fa98,
fdc9,
0366,
00be,
01b1,
0157,
0656,
0414,
088b,
02d4,
064c,
0253,
036a,
febb,
f8e7,
f60d,
f9ee,
ff2f,
021f,
0bb2,
0caa,
0cfc,
0507,
0604,
03da,
fb97,
f690,
f0f6,
fbec,
fe3a,
03cf,
03f7,
0002,
0162,
0689,
055e,
0852,
06ea,
03ce,
ff30,
fee0,
fe41,
f7f7,
f9fd,
f7ce,
ff58,
0d45,
09ef,
09e3,
0c4b,
06e6,
066d,
019b,
fda2,
f714,
f616,
fb3f,
fbe4,
fdee,
030e,
00a8,
fd08,
076f,
039c,
07f3,
042a,
fbe2,
0019,
016f,
ff76,
fb6a,
f881,
fffd,
02c6,
0591,
0116,
00bf,
03de,
0558,
0958,
0589,
0140,
017d,
fd86,
fae8,
0221,
fe50,
0545,
008b,
fd37,
0694,
0716,
fa2e,
f889,
f8a5,
fca9,
f841,
fb88,
feba,
035b,
06d7,
0240,
ffaa,
0062,
02a8,
08a0,
ff47,
00c1,
ffeb,
017d,
0033,
0019,
fcff,
0086,
fcb1,
033a,
0488,
fe48,
ff2c,
fc78,
fbfb,
fba5,
f8b1,
fc28,
ff90,
ff7f,
0966,
07da,
054d,
fc42,
ff2c,
fd04,
0153,
02db,
ff2f,
0356,
0252,
ff6a,
fa45,
fe9d,
fd24,
02cd,
020b,
fcd1,
04a2,
0500,
0244,
0827,
f9ca,
f693,
fc9a,
fa5e,
fe3a,
fe4d,
076f,
ff97,
00d9,
fa23,
00c2,
087b,
0794,
fd82,
03c3,
01c7,
0128,
fe05,
f65e,
f91b,
fdbf,
0323,
03f0,
0531,
ffe0,
016f,
ff91,
fffd,
ff71,
f72d,
f5c7,
fb36,
f9c0,
02ab,
0815,
07b6,
fcec,
f930,
0101,
06f7,
0112,
fb7a,
0082,
00f4,
fcca,
0035,
fc1c,
010e,
fd8a,
032a,
0074,
04bb,
ffc4,
fd17,
0111,
0366,
fdee,
faf6,
fbfa,
fe33,
fe97,
0776,
07ae,
0829,
0363,
0290,
0088,
084f,
ff7c,
fc27,
fa4f,
0191,
fd24,
0328,
f081,
fa5d,
fd94,
fdb5,
03b7,
0499,
05bc,
fe30,
01b4,
fdf6,
fba9,
fec5,
f737,
fa5b,
fafb,
032d,
00bd,
00f5,
ff4b,
03bd,
0081,
ff9a,
0080,
f90a,
fb97,
0556,
0164,
f7c7,
f3c7,
f3e0,
01b6,
0387,
0568,
024f,
fe3e,
fc58,
0193,
fe45,
ff78,
fcc5,
f787,
fa91,
fd5d,
0545,
046e,
0207,
fb76,
03b3,
03af,
0255,
f9c5,
f52a,
fe22,
030e,
037a,
f649,
f444,
fac3,
00f5,
fdc4,
0314,
fd3f,
017f,
008c,
fd72,
049c,
04b9,
fd32,
fde9,
f4fd,
fba4,
0377,
ffc7,
0351,
0235,
fc09,
01e5,
014e,
f95e,
fad7,
fe38,
014b,
faea,
fef8,
fd82,
fd34,
ff85,
ffc1,
fde6,
0013,
01c5,
0044,
003f,
009e,
03aa,
04f1,
f7e1,
fc20,
fcd3,
001d,
0417,
fec7,
fb73,
ff23,
02c4,
fb48,
f4cf,
fabc,
00f3,
fda0,
ff22,
f832,
fdf2,
01d5,
00f6,
032f,
fd8c,
04e7,
ff8d,
0269,
02a3,
0034,
f989,
faf7,
fd7e,
fba5,
f82d,
fb72,
0155,
0457,
022b,
00fc,
047e,
fe0b,
0048,
fe49,
f757,
fc10,
fd19,
f9df,
fecc,
fdcb,
01c9,
fef0,
0513,
fc81,
ff68,
0030,
005a,
0143,
0523,
03c1,
02cc,
f9a9,
fb20,
fc56,
fdf6,
f7bd,
fb38,
f8bf,
008e,
01d1,
fe07,
f9ed,
ff6a,
0340,
0179,
fd94,
fef7,
0110,
ffbc,
012e,
ffbe,
fdbc,
029a,
fd6b,
ff50,
04aa,
06f7,
00ae,
0538,
0418,
06a8,
fa9f,
ff25,
fefd,
f949,
ffdc,
fc63,
ff32,
fe37,
faa6,
fbe0,
fedd,
0107,
fe23,
ffd5,
fc1a,
ffcd,
ff76,
ff40,
fe19,
0425,
0179,
03a0,
fed2,
ff61,
0136,
07f8,
052b,
093a,
06c9,
0468,
0643,
09ea,
0d0c,
075a,
06e5,
081d,
093b,
0240,
0695,
07d3,
04d9,
03f5,
fd98,
fdca,
0243,
0466,
0412,
029e,
ff9a,
ff0b,
fcc2,
004b,
ffde,
0036,
ffe6,
048b,
fd7f,
019b,
0493,
031d,
0024,
0635,
0408,
fe63,
0097,
050c,
0385,
044d,
ff63,
01e0,
0404,
0120,
04a2,
fd99,
fb95,
fccb,
fc08,
fe24,
0429,
ff75,
0269,
008f,
03f3,
005f,
036f,
ffd8,
0488,
023f,
fceb,
039c,
fdfa,
0167,
fc5d,
fc20,
fbe1,
0385,
01cc,
ff0d,
0341,
fef5,
ff35,
00fa,
fcbd,
01f8,
fea2,
fdae,
03fc,
0042,
ffc1,
fd94,
040c,
009e,
ff6b,
ffb1,
fd0f,
fe4f,
fdd5,
049e,
040a,
009e,
0129,
fde8,
fbc2,
ffed,
030a,
04a7,
0190,
02dd,
fe40,
ff0c,
034f,
0379,
042d,
0434,
0433,
011c,
01ad,
ffa2,
03f2,
0439,
0637,
036f,
01c9,
0850,
0903,
0739,
0a68,
02ad,
040e,
00c3,
ff75,
fd7a,
02e0,
03cf,
023a,
045e,
005d,
0154,
015a,
fed5,
04c9,
fd56,
0345,
0249,
017b,
040a,
01b0,
0621,
0422,
07e7,
0808,
08d7,
09c4,
0563,
0532,
062a,
fd33,
009c,
f86d,
fc3b,
051d,
0040,
041c,
fcf6,
fdf0,
0440,
fbb4,
fe20,
02b1,
fe56,
04fe,
fffb,
0651,
070f,
0caf,
0971,
0f35,
0b3b,
09ae,
0ecd,
0426,
0a83,
0653,
0244,
0124,
0780,
fc35,
f8ad,
055a,
fc5d,
fe8a,
fc92,
00bf,
fec1,
fca3,
01e5,
fc01,
02de,
fdcd,
ffde,
0683,
0a31,
fec3,
ff9c,
0286,
ff93,
01bb,
02c9,
fc3e,
fdbc,
002b,
ff89,
020b,
048b,
fdd7,
038a,
fd88,
0368,
00d3,
04d4,
040c,
01f6,
ff8e,
fcb8,
03a9,
fef9,
010f,
03a5,
fbe4,
0061,
face,
00df,
00be,
fcc0,
fd23,
fbf9,
f916,
fe29,
fbfc,
fd25,
fbfe,
0408,
f8aa,
fa77,
fee5,
f968,
f8fa,
0361,
0021,
0128,
03db,
fdb3,
fc76,
0231,
0437,
ff83,
fa94,
ffa5,
fb34,
0288,
fe2f,
fe25,
02ba,
00be,
ff02,
02c1,
fb49,
0049,
0037,
01f4,
ffc0,
fa43,
0111,
fb8e,
fbdf,
011c,
fd0a,
fb70,
ff0e,
04ac,
02d5,
ffea,
0467,
02c2,
f8cd,
feb6,
fc16,
fdc1,
024d,
05d2,
0105,
0012,
fdb0,
0177,
fcf8,
0259,
0559,
05af,
00c3,
0296,
05bc,
fec4,
f236,
fdac,
ffef,
0160,
fe62,
fd44,
fe97,
012f,
0605,
ff50,
f90d,
fa6e,
fc09,
f9fc,
fa77,
fb06,
f937,
f802,
f841,
fe40,
0206,
04ed,
0462,
0693,
0574,
fe59,
03b3,
00e8,
efd1,
fe3f,
fa49,
ffa1,
ffa0,
ff32,
ffd5,
febe,
ffad,
fb2e,
fa0b,
0264,
fd07,
fea6,
fd0d,
f65d,
ed80,
f85b,
fa6b,
0109,
0418,
0bfd,
06dd,
06d0,
01ed,
01c2,
0925,
fde2,
f413,
f84b,
0130,
ff29,
005a,
ffa8,
fdc5,
0041,
fa6b,
f63d,
f68d,
f8bb,
f5ff,
fa73,
f3d0,
ef82,
eb82,
fbc5,
0d8d,
0774,
ff2d,
033d,
0506,
0710,
0045,
088d,
ff53,
fc86,
04ed,
04f3,
fea8,
038e,
fed4,
fbae,
fad0,
fdf8,
fb7d,
fb3e,
f4e5,
f590,
fc00,
f957,
f48c,
fb43,
f82e,
0ae2,
0cb7,
0c24,
01a4,
009d,
020e,
ff8d,
f92f,
03de,
fd29,
038e,
02fb,
03be,
fdc9,
02ce,
fba3,
fef4,
feae,
ffdf,
fda7,
f9df,
f197,
f34b,
fbc8,
febd,
f7a0,
fb02,
078d,
101b,
1276,
07fd,
0145,
f619,
f764,
f139,
fd3c,
fc96,
0140,
ff90,
0530,
051d,
fd72,
03c0,
fba3,
0291,
fee9,
fe51,
fcf1,
fba1,
f54c,
faee,
0384,
01ae,
000d,
00e7,
0b6e,
0b3f,
0878,
02ff,
fe0a,
fb12,
fc06,
f870,
fb0b,
fd32,
0157,
ffdb,
ffd2,
fdf0,
0204,
0244,
fc00,
fddb,
02ab,
037f,
0247,
035e,
fef3,
03e0,
014d,
fdde,
fb74,
04c6,
01c7,
0920,
0731,
fe97,
fca6,
f850,
f9cc,
fb46,
f1d2,
fc9a,
fc2d,
fab5,
fe03,
fdd3,
fc6d,
fd8f,
ff99,
ff58,
052a,
0470,
fd8f,
018d,
05ec,
032b,
0681,
0301,
0045,
0aab,
0591,
fd56,
fbc0,
f773,
f875,
f6ce,
006c,
ff93,
f8b6,
fc48,
fcfd,
0211,
f9fa,
ffe9,
fe50,
fce0,
025d,
044e,
01e8,
02f4,
fc85,
fe10,
018a,
0382,
0287,
0244,
073c,
02d8,
0105,
f7bc,
facf,
fa54,
fb2b,
feea,
fe87,
fe95,
f82a,
ffa7,
fd89,
fde5,
fe0e,
00ff,
fdea,
fd6d,
fd60,
ff91,
04b1,
05d8,
f9fc,
fefd,
036d,
03be,
0012,
0220,
02f5,
f7c1,
f4cc,
fcbc,
fbea,
fe7a,
05a7,
0878,
0326,
0427,
00a0,
fd53,
fc71,
064c,
048e,
00e5,
044b,
02be,
fc68,
045d,
0112,
00eb,
0129,
f970,
01de,
0894,
fee9,
0269,
0109,
f37a,
f3a1,
f921,
03dd,
048c,
0b4f,
0c38,
06aa,
0d8b,
0308,
0171,
01d4,
0884,
03ec,
0117,
ff22,
fc5a,
019a,
fc1a,
037d,
01d5,
025b,
fe14,
052f,
01ad,
0637,
012c,
fd21,
fc73,
f7f1,
01b3,
03f9,
04c1,
0515,
061a,
072d,
0d40,
061f,
0314,
0485,
fdca,
00b4,
fec6,
fe51,
047c,
0069,
fc28,
013d,
0230,
017a,
0124,
0315,
0a3d,
033e,
ffef,
03b6,
ff2f,
039d,
078d,
04b4,
03bd,
016a,
fca2,
07d9,
08e9,
0606,
fc7f,
0008,
ff0d,
fdaf,
029e,
fdd7,
00e6,
fc0e,
fc97,
fc5e,
03fe,
0991,
05d2,
02b7,
04b1,
0112,
fde4,
0194,
04e0,
fcc5,
00bc,
021f,
f993,
f6f2,
fa1f,
fff5,
016f,
0177,
ff6a,
00a9,
fdf9,
0142,
02ec,
012c,
005f,
0313,
008f,
02b8,
06f4,
06e3,
0557,
fda4,
fff3,
02b7,
023d,
f9cf,
fcd7,
0126,
00ca,
fed9,
f934,
f7fc,
fae1,
fbe8,
0367,
0147,
fe0f,
01d7,
fb9b,
fb09,
0342,
fec8,
02fa,
0098,
0376,
ff1d,
057a,
0570,
0100,
fe44,
fa23,
fe5b,
01bc,
fd46,
0077,
0131,
f82d,
fa49,
f178,
f7a0,
fef1,
f968,
f3d7,
faad,
fa2c,
ff41,
0181,
031d,
01ad,
0248,
0408,
0413,
fd67,
0292,
0362,
0248,
fb79,
fc12,
ffc0,
fefc,
069c,
036c,
0335,
05f0,
fd01,
f8be,
fe2d,
fc29,
01a8,
fced,
fcdd,
03d4,
fa87,
003c,
00d4,
03a4,
fc06,
fc14,
fe34,
fcd0,
fca6,
005e,
00ac,
ffc0,
0082,
fd7a,
fff8,
fea1,
0289,
ff68,
faf1,
00ea,
fa83,
0194,
f9d3,
fc90,
0219,
fd85,
ff0e,
fed4,
03ce,
0318,
03d8,
fb9c,
045d,
fcdd,
fedd,
03f1,
ffe6,
fc74,
046a,
fbab,
fbf5,
fd84,
0455,
009f,
03c8,
03da,
024e,
00cc,
001f,
fe3a,
ff89,
ffcd,
fca1,
0306,
0402,
ffb5,
fd24,
0437,
02e0,
023e,
030a,
0280,
ff37,
04a9,
065a,
01c2,
ffd1,
07bb,
02da,
07bb,
0174,
ffce,
01ab,
06aa,
0842,
03d1,
05e7,
046b,
06d5,
07ab,
ff41,
03fa,
0070,
040a,
ffe4,
0565,
0539,
07ef,
03f8,
ff6f,
00e3,
010f,
03c8,
0524,
0294,
0584,
04ec,
04c3,
00e2,
0240,
043c,
0605,
03e5,
05ed,
0445,
0472,
04ba,
07e3,
00cb,
082c,
07ff,
061c,
02a1,
06f0,
0543,
04c4,
0391,
0480,
062f,
01e6,
01b3,
06cd,
06ae,
03f9,
04d4,
0483,
ff85,
038b,
fee6,
03eb,
03ed,
0321,
005e,
05c2,
08de,
0d8b,
0d93,
05bf,
0fdc,
0816,
0c93,
058d,
0188,
01b3,
0506,
01fd,
022e,
ffb8,
0316,
0713,
02d7,
018b,
028d,
ffae,
004c,
0090,
fd5c,
f021,
f386,
f643,
f77a,
016c,
0529,
0393,
09a9,
0da2,
0ab3,
08c7,
08d1,
0495,
ffc7,
063e,
ff2f,
0712,
072e,
06d1,
024c,
00f5,
060e,
083d,
0782,
ff36,
fc39,
f3a0,
f181,
f687,
f6f7,
f143,
065b,
090c,
0156,
fa42,
fdcd,
00b7,
fe24,
ff7f,
07d7,
023e,
05ef,
faf7,
0130,
ff1c,
06d3,
05c9,
ff4e,
003f,
ff46,
01bb,
04e3,
fd1b,
f627,
f439,
f2a6,
eeea,
f905,
f0ca,
fcc7,
fc14,
03ab,
f91a,
ffc7,
070c,
01b1,
ff93,
febb,
0176,
0899,
fde2,
0422,
067b,
0315,
019a,
055b,
03c5,
0242,
ffab,
fb19,
f7a1,
fa23,
f6ea,
efd0,
f8d5,
f96d,
fad8,
fccc,
fff7,
0218,
05aa,
ffb9,
0b18,
01ef,
03f1,
0613,
019c,
0118,
026e,
08d6,
ffec,
05a5,
ff61,
071f,
0339,
0476,
ff5b,
ffe4,
f8ce,
f8ec,
f9f6,
fa69,
f206,
f790,
0329,
077a,
117f,
0fdb,
0ada,
08ea,
0799,
fc5f,
0d1c,
063b,
079f,
03ec,
0747,
ff63,
022b,
0458,
046c,
0342,
015a,
0349,
0176,
f72f,
f627,
f5b4,
f18e,
f389,
ef1f,
f87d,
ff5a,
076c,
0a6a,
0c0b,
0400,
fbbe,
f79b,
fbfb,
fcf8,
0156,
ff94,
fdb8,
01ce,
03a1,
06b7,
07ce,
ff54,
0289,
05f5,
ffc7,
ff2a,
fd8b,
fbcb,
f477,
f2fb,
ebc0,
f37d,
014f,
fdc6,
0acd,
0e0b,
0612,
f72b,
e851,
edd5,
f25d,
efca,
f791,
f396,
fd36,
fda4,
001b,
06be,
0297,
028b,
07ac,
0122,
00c1,
fa86,
f8b9,
f30e,
f8be,
f11b,
f073,
f6ae,
0298,
0340,
09b7,
0435,
fee0,
f1fa,
e944,
e986,
ed8e,
e9e0,
e4f8,
f45c,
f54d,
f85b,
fda8,
0557,
00db,
0517,
fffd,
ff8a,
fca3,
0067,
ff02,
fba8,
f781,
f554,
f6c6,
fc68,
fd3f,
00c7,
096b,
01d0,
f973,
fa24,
f24a,
f49e,
f378,
e740,
eebe,
f6eb,
f8a1,
f91f,
fe6e,
fd26,
05aa,
07aa,
04f2,
046c,
0458,
fe0c,
fbb5,
fe09,
f533,
f7bb,
fb13,
ffe4,
09db,
04e6,
ff22,
ff66,
0104,
fee6,
f8cc,
027e,
f53b,
ea60,
ec50,
f71c,
f888,
fc79,
fad4,
0387,
00f6,
0541,
05a4,
00ae,
ff0c,
01ef,
01f7,
fcfd,
f3a2,
faf4,
fbd8,
081a,
0793,
07d1,
fc06,
ffe4,
051c,
05fb,
f863,
0039,
ff55,
fdbc,
f8e8,
f91d,
ffeb,
f9d2,
ff3d,
fde2,
0781,
06c6,
045b,
06f8,
0043,
fe7b,
fab4,
f81a,
fc74,
fef4,
07d2,
02e3,
ff6a,
fd9e,
fb37,
fd65,
03ba,
0794,
01a3,
05ba,
015c,
079e,
0228,
03e7,
ff22,
021d,
fd5e,
04c6,
0054,
0199,
0207,
ffa8,
03e4,
0571,
01fb,
fcb4,
031e,
fd5a,
feb2,
0638,
069f,
0617,
0332,
0319,
fc22,
060d,
0623,
0db3,
068b,
067c,
0568,
04d9,
029e,
0001,
009a,
feee,
0162,
063d,
040e,
00bc,
05b4,
060a,
0713,
0252,
0170,
0479,
fea7,
00e1,
02ce,
04ff,
fcb2,
ffe5,
01f4,
08fd,
03a8,
04e4,
ff29,
0373,
0034,
0264,
ff98,
07a9,
0205,
0284,
0335,
00e2,
01fa,
0450,
09f6,
07f3,
1050,
096e,
08f9,
0331,
ff8f,
07bb,
fe4d,
f6d3,
00ad,
0974,
00f6,
0147,
fd61,
019a,
01a7,
fea0,
fe52,
0002,
07dd,
07dd,
0064,
060b,
02a9,
ff8e,
0371,
00c1,
06ad,
0579,
07b1,
0b61,
09e9,
03cc,
042b,
ffc8,
f663,
fb78,
07af,
0c40,
0676,
fd71,
f818,
ffce,
fd71,
ffd4,
ff66,
ff23,
06e2,
0083,
012b,
04c4,
0340,
071c,
01ac,
058a,
0408,
03da,
0c30,
067f,
0310,
022f,
0189,
f9cc,
fdc2,
0296,
06e6,
0f74,
0735,
0207,
f52a,
fe5b,
01b2,
05d3,
01d0,
fce4,
0e4d,
0889,
0866,
035a,
031a,
04f6,
0241,
0856,
02a6,
020b,
028b,
0310,
0020,
fdcf,
ff10,
f875,
f797,
01f8,
0670,
0d62,
09e5,
0518,
fd2f,
037a,
088d,
03a1,
fc27,
f821,
0621,
08fe,
05fb,
06bd,
06a4,
ff90,
0707,
00c0,
0703,
0773,
0151,
fe41,
fd7d,
fde4,
fb14,
fa35,
fdd7,
06cc,
063e,
0b40,
0431,
0338,
fcdb,
0362,
00ca,
03ab,
0416,
0071,
fdf2,
06f3,
058c,
008f,
046a,
053f,
ff95,
0414,
011a,
00ad,
fe35,
ef4e,
f7e8,
00aa,
fb52,
fb90,
fec6,
0282,
0a8a,
06d8,
0763,
047c,
0439,
fb8f,
ff52,
0414,
02f9,
ff5c,
00d6,
05b0,
0111,
018d,
06d9,
ff4c,
02dc,
ffbf,
0320,
07f7,
0328,
ff4d,
edb4,
ef8c,
fe26,
fe3d,
0128,
067f,
0668,
02aa,
fcf6,
02d8,
0223,
fc52,
02a8,
0298,
ff8e,
015b,
fdc5,
0084,
0158,
00db,
06ad,
05ae,
033c,
07ed,
00d0,
053d,
ff2c,
fd77,
fc1b,
fc47,
faaf,
0388,
0091,
fd56,
041d,
ff25,
04b3,
037a,
06e0,
02b8,
fc92,
03a5,
fe3d,
020a,
05fc,
0585,
0256,
06cc,
020b,
026a,
02c3,
0214,
0416,
03c3,
05fe,
fd8e,
02ab,
0210,
febe,
001d,
09d3,
0e26,
080c,
0a0e,
01f6,
0513,
044f,
062f,
0255,
0060,
0589,
0619,
002b,
0426,
fff6,
0557,
0666,
04de,
049a,
058d,
0716,
0285,
03d6,
079e,
099d,
0309,
0e27,
0a78,
0514,
0994,
08c5,
0a0c,
0a2d,
07cb,
05f9,
0038,
0085,
06e0,
026d,
06cf,
0060,
04cb,
0038,
ff99,
07ed,
06e2,
051c,
04ee,
07a3,
ff55,
07b0,
0723,
049c,
05a3,
06ee,
00b9,
01aa,
01ae,
03cd,
007a,
05e7,
05a8,
060d,
04d6,
066a,
0051,
0354,
06f2,
032d,
054b,
0574,
ff7b,
035d,
fd02,
fc4e,
0030,
0366,
00c0,
050f,
02d9,
fd2e,
009f,
03e6,
0331,
fdcd,
0211,
032f,
fdbd,
02b8,
0506,
04e5,
ffd4,
0012,
fc6f,
feae,
0003,
045d,
00f1,
035e,
fcc5,
02a5,
02df,
fd3b,
0276,
02a0,
03ed,
fd5f,
0498,
fff2,
fead,
fd44,
052e,
056f,
0019,
ff77,
ff7c,
fd31,
fda0,
0504,
00b8,
ff9d,
0164,
01c9,
fd6a,
033c,
fe0c,
ff98,
00c2,
010f,
fdee,
0000,
0241,
ff8c,
0326,
fd01,
044b,
0235,
fc83,
fc47,
0045,
ffb2,
03b5,
fc1c,
01b6,
03dd,
03b9,
0492,
0160,
08de,
0259,
0198,
0336,
04f4,
fe96,
037a,
022a,
02d1,
00b4,
ff9a,
0113,
0030,
0190,
fea0,
037e,
0146,
fefe,
03ce,
0030,
fc49,
fcce,
fe11,
00f6,
0539,
047e,
030a,
0939,
0074,
0372,
0638,
006d,
01c9,
00b5,
0277,
0375,
fc39,
0371,
fc1f,
feaf,
0296,
0307,
fde4,
0009,
fd37,
ffdd,
fcea,
feba,
fa52,
fcf5,
0688,
0705,
07c7,
07a2,
058f,
0536,
0cbb,
0534,
0626,
01b8,
fdb2,
03c6,
036c,
fe6b,
fe86,
03a3,
fed3,
fdd2,
0441,
0031,
ffb3,
fd58,
f86c,
f624,
fa58,
ff99,
005c,
00e4,
fefb,
0772,
0071,
06ae,
0614,
0d7b,
0a2e,
1231,
070b,
fd40,
fcda,
fece,
febc,
0317,
0306,
0300,
0201,
ffc1,
0145,
fedf,
fead,
f724,
f247,
f6d2,
f63e,
fe9a,
044b,
0513,
0698,
0794,
00a4,
030f,
07b9,
047d,
007c,
0735,
0285,
f9c0,
fed0,
