memory_initialization_radix=16;
memory_initialization_vector=
09ce,
fac0,
043d,
033c,
f990,
f907,
f91c,
0051,
0135,
020f,
fd71,
f731,
01eb,
f8a1,
01cb,
f737,
11be,
0aec,
04fb,
10dc,
fd4f,
fe90,
0508,
f823,
fc53,
f2e7,
fb4d,
fe22,
fa2d,
1af6,
0ffa,
f71e,
093f,
fa05,
0ca5,
038f,
0488,
05ca,
0222,
fdf3,
031d,
0592,
ff25,
0ae0,
0676,
fed4,
fc6b,
fef9,
f905,
ff38,
0168,
0da8,
070c,
0383,
0939,
fd50,
f803,
00cd,
0558,
0685,
0435,
0aca,
fce5,
f9f9,
ffed,
f427,
0067,
0898,
f8f9,
fcc4,
f703,
02c0,
f7de,
fff0,
067b,
1202,
00d8,
013c,
fbf0,
ff13,
08bc,
04b5,
091b,
0420,
018d,
fa32,
06d0,
faf8,
0fb9,
fde6,
fe2e,
06f9,
02d5,
f0af,
f52a,
f866,
0303,
0c1a,
076c,
015e,
ef80,
ff32,
fe4d,
04da,
fe05,
0a35,
08dd,
f2e5,
06eb,
05a0,
036c,
074f,
033f,
ff03,
049a,
0182,
fe82,
ff0a,
027f,
fb21,
00c6,
043d,
0af2,
031d,
fda1,
01b5,
145c,
ff56,
07c9,
0260,
0740,
f9c9,
fefd,
fc90,
fb95,
0ca6,
0717,
0958,
0380,
0f1d,
fb65,
0cd4,
0337,
f3e4,
08bc,
0389,
0a94,
02e6,
fe96,
0715,
0515,
fefa,
00da,
ffb7,
fee8,
0903,
04e2,
fbdb,
ff12,
0bd4,
fefd,
039e,
0724,
0fc5,
fc6a,
fb26,
f62e,
15e9,
ec61,
19b0,
0e01,
f8ad,
0130,
fd3e,
07be,
0540,
08c8,
f977,
f358,
03c2,
0171,
f99e,
06db,
e571,
fc50,
0593,
faa5,
0971,
060f,
0a6d,
fd48,
03ca,
fdc4,
028c,
007a,
008e,
fd7f,
0368,
f9a5,
f792,
03c2,
08d4,
0677,
fa95,
fa8a,
0248,
03f4,
067d,
f9b6,
f513,
f9b8,
08d1,
f5df,
0258,
f96f,
f8c4,
0840,
03a0,
0a24,
0668,
f247,
ff9c,
0582,
fddb,
fece,
f7fc,
f507,
046c,
0240,
0148,
ffc5,
05c6,
f563,
f4db,
04c0,
040c,
f23f,
08cf,
ffa1,
ef68,
ff6a,
0263,
fc1b,
fea7,
098c,
f8cd,
f72b,
037d,
0504,
f815,
0770,
fd80,
0627,
0154,
0211,
0735,
0eec,
feb1,
fce2,
fcba,
078f,
0bc7,
028f,
ffe1,
f6fa,
01d9,
05ab,
0377,
0645,
ff5c,
04d6,
fc83,
efc2,
007d,
06ef,
fa71,
f810,
f9e9,
0750,
0203,
ffda,
0d65,
fe94,
fc05,
fc48,
07a7,
1681,
07ce,
fa78,
f99b,
fc10,
fc3f,
f93b,
f85b,
026a,
02c2,
ff58,
04d6,
0114,
0196,
f7a8,
fa1d,
00aa,
0e12,
064e,
0d30,
0822,
088d,
01fc,
fe8b,
0510,
f9a1,
012f,
0baa,
fac3,
0355,
0394,
00d4,
04da,
04c1,
f6f6,
085d,
f13b,
042b,
043d,
0027,
01f1,
fabf,
fd16,
fa49,
0a29,
0f84,
f971,
0b77,
f2a0,
f5df,
fb00,
16fa,
0287,
00fd,
0596,
fb76,
fb87,
fc29,
fbbd,
06a8,
f9f7,
f5c3,
0797,
fd28,
0070,
fd27,
07d4,
002b,
fb02,
000a,
0d42,
0cc5,
0856,
ff91,
105f,
fe44,
f960,
08b3,
00af,
0397,
fd06,
f935,
fe26,
01c2,
00f3,
fe8f,
0f45,
fee0,
04fc,
fd65,
f7c1,
0ac1,
fe94,
f6ae,
039b,
0094,
fad2,
07b8,
0297,
0d3b,
03a4,
0805,
08be,
00f8,
01f5,
0bf1,
f90b,
fc43,
01d2,
0ebc,
f686,
fc76,
ff3e,
0809,
0260,
038e,
fb23,
04af,
016a,
0a14,
04cf,
ff40,
ee91,
019a,
0090,
02b1,
fe7a,
031e,
f9b3,
042c,
fc6f,
0c70,
fc6e,
01fe,
0e2d,
f60b,
048b,
066c,
fe7c,
0293,
0426,
05eb,
f773,
fad9,
03db,
fed6,
0578,
e6e9,
f6c7,
0add,
0188,
f3c2,
ff67,
08a0,
01f5,
076d,
fd50,
0e1e,
0912,
0cc2,
06bb,
0638,
f922,
021d,
0163,
f778,
0a50,
06d5,
f3ea,
0d14,
f89a,
13e8,
0929,
fedb,
0284,
fc80,
03cb,
00e8,
037f,
0259,
f96e,
066f,
0159,
f653,
fe5b,
f1ad,
fae1,
fd45,
04d5,
05a6,
fd1b,
fae1,
facd,
fa92,
0081,
0b3b,
faf5,
090d,
f472,
061f,
04e9,
f6c4,
0646,
05da,
fd34,
0d8d,
05c6,
fe54,
f784,
f598,
0d8d,
09a8,
fb89,
01fb,
075f,
fb04,
fbfa,
0c58,
03cd,
ff85,
f0c7,
102d,
00f5,
0865,
0102,
0285,
fefd,
fad7,
09aa,
0763,
f7f2,
03e7,
019d,
fe85,
04a0,
fe7f,
fa28,
f8b6,
037e,
fc55,
0206,
0387,
0040,
f6ed,
08cd,
fb8d,
0301,
06bd,
deca,
fbc8,
fc5b,
0729,
097c,
0343,
006b,
0980,
079f,
fbb7,
096c,
02a8,
0497,
f4b0,
0540,
f15a,
ff25,
05bd,
1023,
0481,
00fe,
040e,
01bd,
06cb,
0953,
0396,
0404,
f38d,
08f1,
02d5,
f3af,
0200,
fd14,
0295,
051e,
fbf4,
f8d0,
fc51,
1a0e,
08a8,
fd88,
0474,
0700,
06e9,
00a4,
fef7,
056d,
f2f2,
0e54,
f059,
0aea,
0a78,
073e,
0483,
fe6b,
021e,
051a,
f715,
0d75,
0848,
0036,
0240,
053a,
09ad,
014f,
03fd,
118b,
03a3,
f98e,
018c,
0166,
0378,
fe34,
ff35,
0b75,
fef5,
ff50,
09fb,
f563,
00ee,
0a8e,
f225,
fc2a,
035d,
ffe5,
0055,
ffad,
fe4b,
fc09,
fe3c,
f5ec,
0395,
fdb9,
f82f,
096c,
fb50,
f568,
09f2,
f587,
0004,
09b5,
f9a3,
0186,
01f8,
07d6,
f48a,
0a06,
002e,
f6ed,
03d5,
ff62,
fced,
020f,
fe61,
04f7,
fc75,
0827,
052a,
fb89,
05b2,
fbcf,
0142,
fcde,
044f,
febd,
fac0,
f5a6,
fe31,
f933,
06a3,
fa9b,
f932,
fc6d,
f2ef,
ff08,
078f,
fb60,
073d,
ff55,
154e,
f6ac,
fe1b,
fbeb,
0a6c,
ff4a,
0b9f,
f348,
0afb,
f78c,
0023,
fc51,
00bb,
0734,
fd3f,
f5eb,
0105,
0010,
03c1,
06b0,
0319,
fc6f,
fed7,
0793,
0436,
0575,
0857,
ff2e,
05e3,
fe41,
02f6,
0982,
06ce,
fd8d,
fdc4,
04b4,
f53a,
fec3,
0ed2,
ed09,
1148,
f8f5,
05f7,
f575,
fa06,
006f,
fe36,
edb8,
0e2a,
ff50,
f7bc,
05e8,
f088,
f636,
0907,
f638,
fdea,
f7b9,
0b6b,
0303,
f05e,
f7da,
f856,
0a0f,
fd3a,
0892,
ff12,
0100,
f908,
05fb,
fcd1,
0e1d,
0236,
fe3e,
0190,
0570,
00fd,
01d4,
f882,
ff0f,
03e4,
055f,
020d,
02c2,
0331,
04e2,
04cb,
ff47,
f6bc,
fbe4,
fa77,
035f,
0792,
04e8,
fee4,
fbf0,
fd77,
0009,
0561,
044a,
07bd,
013f,
fa88,
09fa,
fac1,
f9e7,
fdcd,
0515,
fa2f,
f996,
0575,
fe1d,
fe12,
04e8,
032a,
03c7,
f9ec,
021c,
f7e9,
f041,
fdd3,
02bd,
000e,
0909,
0bf3,
07bb,
047f,
faac,
fb70,
03f2,
01a1,
fa36,
fe3f,
05a7,
003e,
09c3,
0e32,
080a,
fab3,
0848,
f7a0,
f766,
0572,
0651,
352b,
0557,
0df5,
f948,
04a6,
fee0,
033a,
efd7,
0a30,
08c9,
00c0,
0457,
f6bb,
fc07,
0a33,
fff1,
00be,
06a3,
fb67,
ff60,
0857,
fb3f,
05aa,
0198,
f904,
0797,
fea9,
0be3,
04a0,
f694,
fe9f,
fa14,
1366,
faf9,
ffdd,
fd1c,
fdad,
fa47,
f71a,
11be,
fdf6,
016e,
057a,
f876,
04c9,
ff2c,
f806,
02b6,
fdbc,
f95b,
09c8,
0e11,
05a4,
fa77,
fdd6,
0371,
03d3,
fd08,
0484,
fd7b,
f7ef,
fde1,
fc13,
fcfe,
03fd,
04b2,
ffdc,
042d,
fec9,
00a7,
ff15,
f89e,
fc53,
0867,
0623,
fc4f,
0057,
01ab,
016d,
fcda,
0577,
0408,
fbf6,
04cf,
0c0f,
f7f2,
fb04,
0a1d,
051a,
fe18,
ffd3,
0306,
0d60,
fb45,
fe8f,
fc20,
0387,
fc9a,
fe8a,
fd3a,
034e,
f814,
fee9,
0043,
0a1a,
fff1,
020d,
fc46,
f71c,
06bd,
04cd,
f8fb,
0c70,
1f17,
ff56,
10d9,
06ba,
064b,
fd47,
fee3,
09e7,
08c2,
0129,
0b2c,
030d,
0115,
14b3,
0ab9,
f188,
0969,
f7ef,
0d56,
06de,
01db,
03ba,
fefc,
06ce,
f390,
177e,
0b97,
094e,
02fd,
03af,
0aa8,
f5be,
02ec,
f93b,
f957,
042d,
fddd,
fd06,
ff34,
f8b6,
fc15,
fb7f,
0669,
0d23,
f974,
fd4a,
f96f,
00dc,
062d,
f928,
05f5,
04ad,
fad6,
efd3,
078b,
0983,
05fa,
f9f2,
08f4,
064e,
02fa,
ff2e,
f056,
0c8e,
099c,
fed4,
fe97,
15c3,
04a5,
02b1,
0512,
fd32,
0d7a,
fb65,
0846,
037f,
0bfc,
15bc,
faf0,
fe4d,
05ca,
0474,
004c,
ffb6,
04ea,
00d5,
ff34,
0291,
104c,
0f49,
1312,
fbcc,
f9ec,
084a,
0111,
0664,
04a3,
0856,
fee0,
00fb,
054f,
0405,
fcc3,
055a,
f77a,
ff50,
0c3b,
05b9,
027f,
026d,
155e,
0876,
0509,
f673,
024f,
01f9,
f8ee,
0106,
05a7,
efe6,
03b1,
fa57,
02f8,
fe28,
f2e0,
fac3,
fe09,
05e0,
04b5,
00c5,
fbbb,
00de,
0324,
fca2,
f569,
f62b,
02df,
0aa1,
ff6e,
0585,
03ba,
f944,
017c,
f443,
fc72,
f815,
0029,
01d6,
fccb,
fdba,
073d,
076a,
fa29,
f6a1,
f6b9,
f37f,
025f,
f133,
0612,
f7b6,
fa46,
0663,
f985,
f729,
f0b5,
0c6d,
f008,
0dcb,
f6d4,
f5af,
031f,
fec7,
fee2,
fa51,
1014,
edc6,
0c96,
02da,
fed8,
000c,
0743,
09e0,
edf3,
0577,
00e6,
0788,
0524,
0225,
04d6,
fc36,
02b6,
0792,
095c,
053b,
f158,
f14e,
f6f1,
0de5,
fdcf,
0aa3,
0040,
f9e4,
0480,
018a,
027f,
0c95,
f9d6,
f927,
0475,
0066,
f41f,
0917,
ff02,
0262,
fe94,
04bd,
0153,
030a,
0b2b,
0c3e,
fc68,
0116,
fe79,
eb79,
0b2f,
036e,
fcb1,
fae1,
0ec5,
fbe5,
003e,
037b,
0893,
f5f3,
fe7c,
fc57,
fb37,
f58f,
f396,
02dd,
fac0,
f7c0,
0187,
fc51,
fb0f,
07a1,
fc3e,
fc3d,
0252,
f617,
0923,
0783,
030b,
0db1,
0ba6,
f168,
f6b6,
fc0f,
efcd,
0817,
009e,
06c0,
f14d,
fc0c,
ff19,
0177,
03ea,
fe85,
fc86,
0433,
fa66,
0f75,
07e2,
0dae,
0c76,
0483,
f7bd,
05df,
f920,
0435,
fe1c,
e938,
f724,
011b,
fc51,
04b4,
00bb,
ff0f,
f651,
f211,
0183,
0606,
fdd6,
fae0,
062c,
f578,
fb04,
f791,
08d2,
040d,
fa7a,
fe1f,
fb71,
f281,
f4f3,
059c,
00c8,
09cb,
0543,
0074,
0e2f,
07a6,
f917,
ff37,
02da,
f99f,
0aca,
e41d,
00db,
ff37,
e815,
f7aa,
f6a3,
0383,
02cd,
f495,
0343,
f0ec,
f7e0,
ff06,
f62e,
0c14,
09a3,
0a3c,
f7d9,
0539,
fde5,
ffc3,
fc72,
ffeb,
0652,
02c9,
0921,
f852,
01a5,
ebdc,
112f,
fdc9,
000a,
fee0,
0544,
fd33,
ffe9,
01a7,
fc00,
f7e1,
0446,
00a0,
0457,
06fc,
fd4c,
f960,
faa7,
fb2b,
f445,
0364,
19e0,
fb40,
fc2e,
0165,
0a83,
0ab3,
ee96,
fca7,
0711,
028c,
0e66,
fe65,
ff61,
01f1,
f126,
f94e,
0ad5,
00cd,
0a00,
06df,
fc4c,
fb1e,
ff70,
07df,
0a51,
f3b7,
02eb,
f5c3,
0ae5,
04b7,
024d,
f7cb,
0047,
e844,
03b3,
fbcf,
038b,
fd26,
fc7f,
030e,
0efa,
036e,
04be,
f83b,
fdd7,
070e,
fe5f,
0435,
0561,
f735,
00e9,
0306,
0026,
0455,
f857,
0996,
0805,
0757,
f56e,
00bd,
002e,
0531,
0912,
fef9,
0175,
ecba,
fa60,
019b,
011a,
0743,
0971,
09b6,
037f,
0ba4,
fd5d,
06e1,
00d8,
01d4,
f7f8,
fb0e,
0447,
0483,
05ac,
ff16,
00a7,
f9b4,
0153,
0291,
f6cc,
04d7,
07fa,
f079,
0687,
0212,
0108,
0eee,
02ff,
06b8,
0323,
043a,
fb36,
ed86,
0268,
fd20,
ff4e,
072c,
fd5d,
0159,
041d,
fade,
12bb,
fcc6,
fc91,
f588,
0480,
04a1,
00ab,
fc7e,
07df,
067c,
0e77,
006d,
0430,
01fd,
0554,
fcec,
ff1e,
fb6e,
0134,
fa1e,
fb72,
fd0f,
013e,
0109,
f53d,
0a95,
0718,
0662,
0275,
f825,
fed9,
fe89,
06e5,
078d,
fac3,
ef4d,
022d,
ffcf,
fb68,
00e0,
0af8,
ff20,
ff11,
0549,
0018,
fdc5,
075f,
fea2,
06c5,
f890,
fcbc,
185c,
05fa,
fdc5,
0513,
ff67,
fc18,
fc33,
0a57,
05c3,
08a1,
fea1,
fdf3,
f580,
09bd,
000e,
05cc,
fd03,
fcc2,
049f,
042e,
f58c,
0bc6,
fc12,
0496,
f1d3,
027b,
06d5,
f782,
f810,
fcf7,
fbfe,
02a4,
00d4,
0311,
0231,
ffbf,
fe05,
050d,
0df1,
fb16,
ff9e,
ff0e,
03e8,
fc51,
fdb8,
0815,
f861,
0973,
07e0,
fd95,
f759,
0e4f,
ff92,
09e2,
049a,
0149,
0025,
fc33,
fc1f,
fdc2,
ff86,
0838,
0669,
f120,
f95f,
fcda,
01dd,
fec7,
01d7,
f5b6,
fbe0,
f084,
0412,
01f3,
00b8,
035b,
feed,
08cc,
07b9,
ffcd,
0320,
0e76,
ffb2,
0065,
0390,
0360,
0496,
005c,
fda8,
f8bd,
ff3b,
ffe2,
f678,
063d,
f276,
1046,
0840,
000e,
015e,
fc17,
0bd5,
f3fb,
fcaf,
ffd1,
fa53,
04aa,
0018,
fada,
15ea,
05e2,
fd3c,
066f,
f6c4,
08e7,
053e,
fde3,
02f8,
f4b1,
0507,
feae,
0958,
0aa1,
044c,
fb91,
fe0d,
fda1,
fd78,
fb42,
05de,
0668,
f949,
0bf9,
00c1,
fed4,
0106,
fe50,
fa2c,
01da,
0629,
f816,
05fc,
e9ee,
f1fe,
0343,
07df,
fd33,
08e2,
f7ca,
fd91,
0386,
01c7,
f544,
0268,
03e9,
0776,
0b77,
02f1,
fb95,
08f6,
0bd1,
0982,
05b1,
fd76,
06ef,
fdbc,
fc6f,
fc22,
03b0,
fbc0,
0911,
fab5,
fefd,
0604,
f2e7,
039e,
033a,
03ca,
07bd,
07b1,
f448,
faf4,
f577,
009b,
fee5,
fd38,
034e,
fbfd,
0556,
0238,
fbe6,
070a,
fb46,
f2bd,
02b5,
fdd4,
fc30,
0a78,
07a7,
01d4,
fda9,
fb36,
0321,
099c,
0b9a,
fbf3,
f77c,
0b4c,
f898,
f649,
feee,
fba6,
ff9c,
0325,
fd73,
fefd,
09f7,
0af4,
0a5f,
0077,
f958,
ffd0,
fcb9,
f2b7,
0015,
0ce0,
096c,
038d,
08f7,
fe5b,
f6b6,
0671,
0354,
0293,
0064,
0109,
faae,
08a2,
0820,
0ab5,
0404,
fa2a,
fce9,
071b,
ffa8,
03a9,
fcef,
136a,
df43,
17ee,
0d23,
faf1,
fce2,
f525,
0659,
0c5b,
054d,
f4c9,
03e1,
0037,
0b11,
fcf3,
0666,
f665,
fe77,
051b,
fd67,
0fc7,
06b3,
0854,
fa27,
07a3,
fd84,
f96e,
fa22,
fccf,
0249,
0797,
f522,
f897,
01a0,
fc54,
005b,
06bd,
f92d,
ff15,
0942,
fafa,
ee3f,
f5b2,
0738,
073b,
0929,
0529,
fb0d,
ed7f,
08f9,
0cea,
0456,
ff6c,
eb36,
097b,
ff3f,
06d9,
ed28,
feb4,
f91e,
f805,
0431,
0ad6,
05b0,
029c,
0544,
f8e4,
0b18,
0952,
fedc,
09c0,
064b,
fb3c,
f39e,
f429,
fa6d,
fcad,
06ca,
0702,
fc3a,
f99d,
06d0,
f7bf,
037d,
ee0a,
0c6b,
081f,
03ff,
08df,
ff49,
fa98,
014f,
0592,
0ea4,
06ab,
0227,
07e8,
f474,
0491,
0519,
061f,
026d,
ff62,
ff79,
052d,
fa07,
ffef,
f996,
fd98,
f9bc,
fb15,
0c04,
02f9,
0320,
f2f2,
ffe1,
04ea,
0244,
f681,
fdc1,
058b,
fddc,
047e,
00e0,
0171,
f67e,
0144,
041f,
0bc3,
e74b,
0eff,
01ab,
08bc,
0a43,
094b,
061e,
fa14,
0645,
0500,
0137,
f81a,
0442,
fab8,
0bf7,
06ba,
06bb,
0114,
ff1a,
0537,
f4f9,
f790,
ff4f,
f170,
f8f2,
0abd,
05b1,
feb0,
ffb2,
0560,
fcab,
0e92,
fd3b,
fdb1,
fa1c,
0012,
1247,
038c,
f11b,
0161,
fcfc,
f164,
043b,
f621,
02b7,
0ac7,
03d4,
fac8,
ecbb,
06bf,
078f,
fa6e,
05e0,
fd4d,
ff61,
01ac,
fe93,
01e5,
0772,
ff71,
e6ad,
f66b,
fced,
088b,
0187,
0a54,
0578,
0860,
090a,
ffca,
0569,
044b,
0853,
0918,
04d6,
0d2c,
0320,
121e,
0467,
00af,
05c0,
ff15,
0746,
0c15,
1088,
ff53,
e575,
0ae1,
fb1e,
fac3,
06d5,
fc58,
03de,
fdf7,
0099,
f926,
00e7,
030d,
057b,
ffc3,
f0e0,
f386,
03d1,
0763,
00f3,
05dc,
0458,
fa69,
10bb,
03e9,
fbb4,
0384,
f895,
00f1,
fbc9,
0604,
026d,
0502,
02c3,
f74e,
06b0,
fb76,
f44f,
0188,
ea69,
f4fd,
f094,
f369,
0152,
fae9,
01af,
0f86,
0c60,
03db,
ff71,
014d,
febd,
eced,
f90f,
07b6,
03f3,
0e60,
fcc1,
15c1,
fdfa,
fdfe,
0914,
ea23,
fdc8,
fdc0,
005a,
fd05,
ef11,
0641,
fc82,
f6bf,
fd67,
073d,
02b3,
f92f,
0ab3,
fe64,
febb,
028e,
0d1f,
0df1,
06e3,
05b8,
0ddf,
eff9,
ee47,
f954,
f753,
0094,
0a5d,
fa15,
fcde,
0a02,
fa0f,
f8d6,
fb3e,
042a,
0117,
fdbb,
fc5b,
02be,
f1e4,
0a6c,
01c1,
100c,
fd94,
f291,
06bd,
02ca,
fdbc,
0274,
f9f6,
0202,
06c7,
f20f,
fedd,
019a,
febb,
0360,
fb54,
0753,
0833,
04a3,
1101,
00a6,
03b0,
f90e,
0300,
fb3e,
04f3,
0663,
07b9,
fe3e,
f521,
06cf,
f66d,
077c,
f87a,
f9e8,
0259,
fa84,
05c7,
028c,
0823,
095d,
f8f6,
05a6,
1370,
fe7f,
fa9e,
0596,
0afe,
0704,
fae3,
0bbd,
00bf,
ef12,
fc1e,
0030,
fe3d,
faa5,
fabe,
0512,
0634,
f878,
08e4,
02da,
02e7,
064d,
fb19,
014d,
0576,
091b,
02eb,
f9e1,
0741,
fdb6,
fa55,
0bc3,
fd1e,
efde,
041c,
024e,
fe1e,
fc88,
0082,
0955,
0923,
05d0,
053a,
fe84,
164f,
e69c,
ff6a,
faab,
023c,
f980,
f9d6,
fe12,
ef34,
0e71,
fc25,
00b3,
fed5,
0455,
fd1f,
f7b7,
fac3,
fc7e,
f0b8,
fb15,
0a40,
fdbc,
04a2,
112c,
f8ce,
0583,
fb9d,
fd3f,
02bb,
0d6a,
015d,
03ae,
fa1b,
f2fa,
0341,
f920,
0366,
0a57,
03a4,
033a,
f962,
f615,
04f4,
08f4,
0358,
fd22,
01af,
e674,
fd0a,
045a,
0b31,
f481,
03d1,
0c34,
fe1a,
f3a0,
fc0a,
03ab,
003d,
02c7,
02f1,
faa9,
f637,
fead,
f839,
0b3e,
0904,
ed4b,
fe90,
fbf7,
0296,
ffed,
0289,
fee2,
0712,
07d2,
feac,
fa22,
fc64,
0011,
08d5,
f9f1,
004b,
00f0,
f7ff,
f714,
fd6d,
fb63,
f72b,
0491,
0a68,
0bf5,
f99b,
fb73,
01d4,
0879,
f65e,
0cb7,
042d,
0598,
0808,
fb3c,
fa45,
042f,
fcdf,
0647,
fc66,
0a40,
0f55,
0636,
0372,
fa4a,
fb1a,
0208,
ff84,
06f2,
fcef,
0ab4,
f6e9,
04b1,
f749,
fef0,
fc08,
0676,
fddf,
ff06,
f9b5,
0197,
06f9,
f537,
0ba7,
fce4,
fc2d,
faba,
f951,
0075,
fe84,
0b75,
f5e3,
fa9d,
0ba8,
eb9c,
fa15,
fd57,
0168,
f08a,
0110,
0010,
0c07,
fb6e,
044d,
00ba,
067e,
fead,
018e,
fd01,
fe69,
fe08,
08bf,
fa47,
09f1,
0a7f,
f7d5,
fa21,
f381,
fda8,
2141,
fa5c,
fd57,
f508,
fd5a,
0128,
ff39,
f95c,
fd72,
ff94,
fbcb,
fc5c,
01aa,
04e5,
00ff,
0493,
0b99,
ff59,
0996,
fdbe,
fbd8,
01ec,
f6b0,
0458,
fdeb,
febb,
02f5,
fe82,
fd53,
fcfb,
01f6,
fb54,
0657,
030b,
07b9,
f509,
014a,
05cd,
f738,
f5e6,
ff4e,
03c7,
0960,
0709,
0431,
0432,
02d5,
0085,
ff7c,
01a4,
048b,
064d,
f34f,
0be3,
0024,
0369,
fd2e,
f6a2,
0295,
1185,
06e5,
f9ce,
0873,
038c,
fb6a,
f701,
faa4,
fae6,
f515,
f502,
017f,
08af,
0612,
0bbb,
02c5,
0368,
06b3,
f42b,
fa85,
ea74,
087f,
fe2b,
03d1,
0163,
0cd4,
fd4b,
ff0b,
0558,
fe16,
004a,
11c1,
fa84,
01f9,
ebe1,
0aca,
fa81,
f2f6,
00db,
faa1,
0461,
10d0,
f063,
fc17,
faed,
0620,
067d,
0d2c,
fb40,
033c,
051f,
14c7,
fb40,
0331,
fdf9,
08e5,
f6c2,
fe8a,
fad8,
01e5,
02e4,
fb73,
fcfe,
04c7,
01a6,
0737,
010f,
0099,
fe54,
0619,
0a06,
ec19,
1388,
03f6,
09a3,
fbf4,
0210,
fc14,
ee0e,
0768,
f817,
07e9,
fa12,
f9c9,
0135,
ffba,
f545,
0d16,
0350,
fd9e,
07fe,
0026,
026c,
024f,
05b0,
f724,
0cde,
05bd,
06b2,
0284,
ee91,
0158,
fea3,
0855,
feb7,
05de,
046c,
fa28,
01e0,
f757,
0a18,
fe2e,
0bfd,
04c9,
fe76,
fdda,
f733,
0269,
0334,
fab2,
08a5,
0d20,
0560,
ebb6,
067f,
037a,
0675,
07b1,
f90b,
02e4,
08a0,
0b5d,
1a35,
f567,
f9ac,
04ed,
f75b,
ffb5,
0ee9,
f736,
010c,
06db,
fb23,
faa4,
ff8e,
0628,
0c33,
f774,
0399,
077f,
080a,
f93b,
0540,
083d,
e81f,
0673,
fbcd,
f699,
f5e9,
0873,
fc53,
062d,
0ad3,
0747,
02fd,
f6ad,
fd1f,
ffba,
ff3c,
0927,
0937,
09ec,
0241,
fcde,
04ad,
f69d,
f82d,
0c39,
0040,
f83f,
e848,
0f37,
0c42,
f55e,
0727,
fc21,
fedf,
0841,
0295,
fb9c,
064a,
fc24,
0768,
0211,
fd76,
fa69,
ef25,
fd68,
fdd5,
fb00,
fbd7,
fec2,
f90e,
07ac,
ffbf,
0a86,
ff2f,
08bf,
0115,
fd19,
f2ea,
0bef,
0283,
018d,
01c5,
fbbe,
f00e,
0b43,
03fb,
0fd3,
f203,
0e1f,
f23f,
f6d4,
05da,
01e4,
faa2,
f724,
0269,
fc9c,
faf6,
fe9f,
00a2,
ff67,
ef57,
03c5,
09cc,
06ce,
0256,
017b,
0234,
00c5,
0250,
fc32,
0510,
ff51,
fb73,
f5f4,
f74e,
f0f4,
004a,
020c,
f8db,
05f6,
0682,
fda0,
fddf,
f06b,
fcaf,
fb9f,
06ba,
fd6e,
02cb,
0326,
029a,
072b,
0019,
08a7,
0201,
f8ab,
13b6,
017c,
0a66,
0030,
f5ca,
0905,
0386,
fe6e,
04d8,
fa44,
0251,
0602,
035c,
000f,
092c,
09bd,
0256,
0623,
0d9b,
01d7,
0c49,
fa41,
0c37,
0322,
f8df,
fbd8,
f446,
0391,
0043,
fcf8,
06e2,
fa3e,
fc17,
0142,
0867,
08b5,
fb09,
03d5,
001f,
f5ff,
0951,
f573,
066f,
0555,
08e4,
fbc9,
03f8,
00fe,
01dc,
0286,
00fb,
fa78,
ff4f,
0460,
f86a,
fdba,
0123,
f549,
0330,
0385,
f86c,
f8aa,
0044,
03fe,
fcf8,
fee0,
fd43,
fe8e,
00c5,
f6a3,
0aa6,
fedb,
0275,
fc29,
fca6,
0115,
0557,
02a0,
f576,
f6f5,
015b,
fd6a,
08d9,
0a70,
f8a9,
fb70,
f2fb,
01e9,
04c8,
fe75,
fa42,
00b6,
01d4,
fe60,
fd5b,
fd25,
0699,
f8a7,
ff90,
03ec,
03c3,
0094,
05d6,
fbe5,
fc37,
fa93,
fac3,
0dda,
036b,
00ce,
fcb4,
0533,
08d5,
047c,
086b,
021f,
fc6a,
f87a,
fed7,
fe49,
fd71,
fdc8,
fd29,
0bf0,
fa99,
f527,
0c5f,
036b,
0413,
fb1a,
0661,
ffdb,
ff48,
f549,
0e84,
0386,
0395,
fa97,
f34a,
fd6d,
0351,
f9f3,
f5e4,
0827,
08a0,
0743,
00a8,
0ab2,
f782,
fac7,
04e7,
fef7,
0296,
0152,
0885,
0318,
0731,
eb11,
017a,
0574,
00a1,
f3bf,
0390,
01df,
077e,
f168,
febe,
0142,
fb33,
fc09,
f7e4,
0a57,
0012,
00bf,
0317,
f93d,
fd2c,
fe1e,
f765,
fe13,
fa05,
0567,
00d1,
f744,
f8e0,
f1bf,
013e,
fb08,
036b,
02f6,
f632,
05a7,
f700,
fbc6,
f8df,
00db,
fa2b,
0190,
0965,
096a,
0145,
fb38,
0299,
0963,
fcd2,
fdfd,
fa1b,
f2e6,
f331,
f644,
072c,
fa68,
007f,
f602,
0b38,
0518,
01a6,
00c3,
fe8c,
0120,
f817,
06b9,
0164,
02f5,
f7d3,
09d2,
faa8,
fe0c,
0a42,
f2e7,
09a4,
f989,
03ac,
fd57,
fb56,
13b0,
0209,
0065,
0c7f,
f604,
0460,
fc32,
fbdb,
037e,
0d47,
ff2e,
ff5c,
fa0f,
0587,
02e3,
f981,
0610,
f863,
1195,
020b,
f971,
fdfc,
0801,
0075,
fb5f,
fc3f,
0a51,
2265,
0377,
0f14,
f45d,
0734,
fb34,
0117,
00cc,
05cf,
fccb,
06d7,
f808,
06f4,
087a,
118c,
f942,
0c86,
0ae5,
f7d1,
034d,
0070,
05e5,
0dc8,
fa77,
00db,
fa20,
0a4b,
fa70,
01be,
00ea,
fb05,
f3e2,
fa4f,
0549,
04fc,
0565,
ff9d,
032d,
feae,
f878,
f368,
fd79,
046d,
0106,
0975,
f772,
0391,
0817,
03f3,
fe57,
081b,
12e4,
047d,
ff60,
f64c,
fbfd,
05c8,
05d3,
062b,
0088,
05a4,
00c4,
05d5,
0012,
f434,
fe75,
f9c6,
f82a,
fd57,
fc04,
fb29,
045e,
f833,
0684,
03d2,
f85e,
f81e,
fd05,
094a,
032f,
0ae5,
04ae,
f7cf,
fbfa,
0283,
fe63,
006f,
fb05,
01bf,
0660,
0c21,
080f,
fa5f,
0866,
0775,
fe2f,
0ad6,
ffd6,
06e6,
f6f2,
fafc,
fc1b,
0a8c,
0976,
fcde,
00e1,
06bd,
0530,
fc31,
077c,
02bf,
f8e9,
0565,
1204,
f8ac,
0c0a,
f2eb,
0e50,
02f1,
04f4,
ff7e,
f554,
0793,
0b97,
ff39,
04f9,
0747,
0d12,
03eb,
0dfd,
fb0a,
052e,
01af,
fa02,
139e,
fdb8,
01cc,
03d3,
0f2a,
0d19,
103b,
0162,
fc19,
05b6,
03d7,
fd78,
fddb,
0399,
09a6,
019d,
0556,
fe4f,
00f6,
f941,
f807,
fc97,
0adf,
f6d9,
02a3,
04d0,
0762,
05fd,
f4e6,
0cd1,
0138,
0cdd,
eddd,
079f,
f799,
fefa,
f7bf,
0b86,
001f,
058f,
0a85,
f495,
0de5,
f0b0,
fbb4,
f7ef,
11d9,
06f9,
0027,
06b5,
049c,
fb07,
fa69,
fabf,
f9d7,
08ad,
0796,
0795,
0ffd,
0804,
fba9,
f74c,
057b,
fb62,
01ca,
f97a,
0963,
f78c,
12e6,
0256,
0563,
07d3,
fc85,
0428,
fc47,
fa68,
095e,
f7a4,
0054,
00d3,
01f3,
015d,
fa9a,
0673,
02c7,
fdb9,
fdad,
00ab,
06de,
035a,
fd28,
fb6b,
f564,
fb76,
fc7a,
efcb,
fae1,
0648,
0399,
03b7,
fb7a,
07f5,
0543,
fa61,
faa5,
04d6,
fa2a,
00b5,
ea43,
f8df,
01a0,
f112,
f827,
0dcd,
fa60,
f2c9,
0568,
fa01,
0298,
fd96,
06e4,
0558,
e344,
fd98,
fe71,
0642,
010a,
03ae,
0738,
08b7,
f1b7,
069a,
f771,
0202,
f269,
ffa3,
01a7,
0c09,
e5ca,
f85d,
026d,
fd86,
f789,
0468,
ff6b,
f610,
0541,
fec8,
018c,
012f,
fc84,
f77d,
0237,
05b1,
f2f9,
0477,
0234,
03bd,
fc66,
044c,
0654,
fd67,
089a,
f989,
00c7,
fd57,
f9bb,
0a8a,
03b0,
02bf,
04d2,
fd8c,
04cc,
ef61,
0513,
014c,
062e,
13af,
f9ad,
f3c1,
f174,
fc7b,
fb23,
0756,
f91a,
0c8e,
fc55,
fafa,
0b33,
05a4,
01e1,
fbbd,
035e,
0642,
069d,
f8be,
f107,
0838,
09c5,
0773,
f6e2,
04e4,
ffb1,
04b2,
ff0a,
0398,
f67d,
06a4,
047f,
0438,
0091,
f813,
058e,
0669,
02af,
0583,
f3a7,
0412,
e89e,
018d,
fa7d,
fe1f,
ff24,
095e,
08d9,
f076,
fb76,
0160,
f9da,
0309,
f9cd,
fa03,
0631,
0481,
014a,
0082,
fbe9,
02d9,
fd98,
ff8a,
02ce,
04e4,
f624,
02af,
fe1d,
f102,
0149,
fb04,
f8f8,
0896,
0598,
f990,
0693,
f45e,
e7d0,
fe5f,
ea67,
05a1,
fba2,
fce0,
fa01,
f46c,
fd11,
fee1,
0605,
f021,
fe65,
057f,
01c3,
fb75,
0ba2,
0287,
041f,
e6ae,
0689,
0646,
08ef,
ffb7,
faf8,
fd65,
05df,
011a,
f980,
fc9d,
06dc,
f5da,
fa34,
fab8,
0af2,
fb10,
fd1a,
fb8d,
0434,
07cc,
00ea,
fbed,
fd6d,
0d78,
f80d,
0441,
05d2,
00a5,
f406,
fd9a,
f9d4,
05fc,
0385,
fc8b,
0028,
fa93,
080e,
fbdd,
ea71,
f9a3,
020b,
03e0,
ff4e,
fa81,
0101,
009a,
0192,
fd07,
fa5b,
e77f,
0a78,
f298,
07de,
0711,
f9e3,
fba0,
fcdf,
014c,
06a6,
fe6e,
0921,
fd43,
04b2,
f67c,
00ba,
fb61,
028b,
f8ec,
0118,
f4d9,
fcbf,
0d82,
f51d,
fbd6,
fe5e,
036b,
fb96,
fc6e,
fa37,
095d,
fc17,
f869,
f841,
0012,
0509,
0382,
0694,
0427,
0302,
0635,
ee12,
fb9b,
fee9,
f302,
f912,
0664,
f3ee,
ee87,
0f03,
fe67,
ff5a,
fe64,
0912,
f8a0,
0133,
fb8a,
0ed5,
0989,
089f,
0515,
06c1,
f07a,
f917,
fea1,
0144,
06e1,
086f,
0116,
03da,
0ed9,
eab6,
0033,
0506,
fe37,
f993,
0338,
0024,
07fa,
043c,
06fd,
0338,
f4e8,
fd74,
fa8d,
f7bb,
f808,
0583,
092f,
0159,
0494,
063d,
02ac,
fe02,
1460,
0115,
f1bf,
f694,
0479,
efe0,
050c,
fa42,
ff48,
fc48,
fadd,
0474,
0709,
04dd,
0457,
01fa,
06a6,
fbcc,
0243,
ece2,
f9ba,
030a,
ffee,
fdf9,
0071,
0dc0,
fb83,
00c4,
0219,
fa3b,
ed81,
0502,
fe18,
0901,
026d,
fda5,
fb5e,
fe89,
18e5,
f66f,
fbf9,
fee0,
fff6,
062d,
028d,
0b7c,
0420,
ffdb,
0698,
fa1a,
edb8,
0009,
0507,
019a,
0291,
0071,
0b8e,
eee5,
f79c,
ff51,
fe10,
0428,
05e5,
02df,
fe20,
fd93,
f976,
fdb7,
04b3,
fbf9,
f9aa,
101a,
f45c,
1208,
028a,
04ca,
0f12,
ff46,
0a08,
01f4,
11bb,
f7c9,
029c,
fa21,
0550,
ffea,
fe4d,
00d9,
fc28,
0b04,
0670,
fdbd,
f81f,
f233,
f93d,
e803,
0265,
fac7,
04a3,
ff51,
fa84,
fcf8,
fb14,
fb4f,
fa03,
0647,
fe43,
0af7,
0611,
0ba8,
feae,
0351,
eaca,
105d,
00f4,
fc80,
0155,
ed8e,
00ed,
f2e5,
f9b8,
0b60,
0aae,
f881,
06ee,
f238,
f53d,
12c1,
f90e,
faae,
0994,
004a,
06b2,
f961,
0399,
0e4b,
00d3,
efaa,
19b4,
fa77,
177e,
e8ec,
f80e,
0ac6,
0486,
fdf2,
fda0,
f5a9,
0084,
04b3,
f800,
f04a,
060b,
01a3,
043f,
fcbd,
f732,
f7d6,
045d,
053c,
0768,
fc2e,
fd14,
fcb2,
f66d,
0d91,
fe81,
fc82,
0285,
001d,
fe3b,
0685,
034d,
0248,
fd93,
03f3,
faa3,
0a23,
0381,
f95e,
0516,
ffc2,
0033,
0cf7,
ee5f,
fb35,
0282,
fc96,
f677,
01f0,
00f0,
0461,
0337,
f45f,
0839,
0213,
0225,
f6d9,
00fb,
f831,
0225,
0c3e,
f76b,
04b0,
f923,
0109,
f7ce,
04c8,
ed6d,
0db8,
0483,
09a3,
0dff,
fbf9,
029e,
ffdb,
0ab0,
fa55,
0a1b,
f830,
fc8d,
f870,
084a,
01cd,
0e4e,
001f,
0759,
0c02,
f6a8,
f9a7,
0f45,
0670,
fb22,
04a2,
fc10,
f908,
ff02,
f870,
f745,
0138,
ffc8,
fba4,
0b2b,
0a2f,
01ba,
fffa,
0de5,
fdda,
f99f,
f0f6,
08c2,
fa31,
01ef,
0919,
f614,
0196,
e306,
ffda,
0796,
fae8,
0524,
0bf7,
0f58,
0148,
0947,
fab8,
ff52,
fac1,
e08e,
fb1f,
0607,
fa52,
15e1,
fb66,
0bf8,
08eb,
03fb,
0542,
08a0,
00dc,
0a47,
fcfc,
022f,
1463,
06e6,
0524,
0360,
f659,
f863,
0248,
0b71,
fd39,
0ae1,
fee6,
f0db,
01d7,
1165,
fee0,
0cce,
0ad5,
09e2,
f77c,
fe05,
fb1d,
f67a,
01c0,
00f5,
0077,
ee82,
081f,
0625,
08c3,
fc13,
0696,
06a4,
0201,
032c,
0225,
073a,
fb59,
f88e,
0922,
0748,
03b5,
037b,
04dc,
010f,
03ae,
fea6,
0443,
eb05,
09ce,
f4cf,
ffbd,
faee,
f6e1,
fb09,
fee9,
00cd,
026f,
091a,
0497,
ff48,
facf,
fb23,
faf2,
fbd2,
0d52,
0987,
fd4a,
029f,
07be,
f7b4,
f815,
fc40,
e932,
04b3,
fea6,
0043,
fadd,
ecbd,
fc37,
0905,
ed90,
0361,
0528,
f6ce,
f57d,
f33f,
00ec,
057a,
007e,
fca5,
0891,
02de,
0959,
0237,
e715,
f636,
fe27,
fdd7,
fa2e,
0a2a,
f562,
076d,
0217,
fc17,
f8f3,
ffa7,
f056,
04f6,
f3ed,
0e01,
03de,
f6bf,
08a6,
f3ee,
ffd1,
0697,
f4a6,
026c,
f64f,
feb8,
0aa1,
f4fe,
0330,
f4d4,
e543,
f8a4,
fa27,
ffa7,
054c,
0868,
0651,
fe39,
0a2d,
0c52,
093e,
f19a,
0f13,
eea9,
fbc2,
f8b0,
faf9,
076b,
01a9,
055c,
056f,
ff2f,
fac0,
0657,
fc45,
0a31,
fe28,
fd6a,
f800,
fde8,
fbcf,
fd82,
00a2,
08eb,
0127,
0c84,
083d,
0409,
f9c4,
fed9,
0897,
06e0,
16c8,
f28e,
fe62,
f9f3,
0e64,
06ed,
072b,
f739,
08cc,
0084,
f629,
0316,
f922,
f822,
ff3e,
0957,
fe96,
fd8e,
02e7,
f479,
fcea,
019e,
07f2,
f9a6,
050a,
f704,
121c,
06a5,
fd31,
05c2,
057b,
f1ff,
078a,
f5ff,
fcc3,
02db,
ffdd,
ff84,
f24f,
00e9,
06bf,
0078,
0577,
f9de,
073f,
136f,
f0db,
f966,
0046,
03f3,
00cf,
0790,
07e2,
ff74,
fd29,
f85d,
031a,
fd27,
04a8,
0974,
fa46,
fb92,
f34c,
1288,
0364,
fae2,
0109,
0370,
05ea,
ff92,
fda1,
0731,
f9ad,
04fc,
0550,
0bc1,
145b,
fef6,
06f0,
fdc3,
f34b,
fb25,
03e3,
f94e,
011d,
fdc6,
f1c3,
f3d0,
f980,
08b2,
fccd,
03e5,
fc17,
f776,
0a55,
060d,
ff01,
fdd0,
0005,
f92b,
00fe,
0e91,
0045,
fd2a,
fc90,
0773,
05f6,
fe5b,
0394,
f736,
0692,
08d5,
093a,
f9a3,
0419,
ff64,
f99c,
068f,
fdf7,
090b,
066c,
fbff,
fd97,
0058,
f96d,
1118,
ff3f,
f7bc,
0530,
06a2,
08c4,
093d,
f8f9,
06ff,
fabc,
00a7,
121c,
0b87,
0bc1,
145e,
f44a,
0517,
0d0d,
07a8,
0410,
ff2e,
0031,
fabe,
f6f8,
fe40,
07cb,
fc7e,
f44d,
fc74,
ff61,
fb13,
fab1,
0e4d,
e874,
06d3,
f721,
0991,
0aa6,
0659,
04d1,
fd74,
08b0,
0310,
07a7,
068c,
fdd3,
043e,
031e,
03bd,
072f,
fc77,
0ba0,
09db,
03e3,
f7ea,
f61d,
fd8e,
fe9b,
e7e2,
009a,
0e08,
fa06,
0968,
0d6f,
f706,
fb9c,
06a0,
fad8,
fae6,
051a,
07cf,
0ba3,
0241,
0192,
f0ef,
0279,
039b,
fb27,
fcb1,
f9ca,
009f,
064f,
0bb5,
01b0,
0822,
0c2d,
0817,
0214,
fdeb,
fe8f,
02f7,
0678,
016a,
fd74,
06a8,
009f,
fe12,
0410,
ff38,
f638,
071b,
fd0e,
0083,
0371,
03f5,
05fb,
02d7,
fbe0,
fb96,
f5e8,
098e,
04da,
01b7,
fd08,
fb91,
f9dc,
ff56,
fc90,
fece,
fd72,
fb2a,
fcd0,
fba0,
fe47,
03e7,
004f,
f411,
fd75,
f8f8,
f72e,
05ba,
febf,
f979,
fabf,
f745,
fbc0,
f9ba,
ff8c,
fab1,
f822,
f7ee,
05ae,
ff6b,
fad5,
f81e,
f825,
0546,
f7ea,
007b,
f966,
fe45,
0221,
f6c3,
f80c,
f6a6,
f643,
0638,
fff2,
f51d,
fcff,
f517,
003f,
fc5b,
fbd0,
f83e,
05c1,
f919,
f69f,
fdec,
01b3,
02e6,
fc5e,
0214,
f62e,
0238,
012a,
043c,
f4ea,
fc25,
fc47,
0290,
00b9,
f91e,
f3d0,
0253,
f90e,
f410,
0076,
fd5a,
f807,
f649,
fe48,
fecb,
fe8f,
f7ec,
fffd,
ffbb,
fe6e,
fd28,
01d4,
06c8,
f875,
fa74,
0119,
012b,
ff9a,
0988,
015c,
f73f,
fcc9,
f88b,
fb6a,
fad1,
f8b7,
f32f,
fb39,
f641,
fe38,
0005,
f7ed,
fa1f,
0184,
06b1,
f873,
f74d,
f98b,
fa99,
fdd0,
fb15,
0588,
ff14,
fcbf,
ff99,
fcf7,
04c1,
ffa8,
f9bf,
0046,
fe0e,
fb24,
fd08,
fccd,
fd89,
01e7,
fd3c,
f829,
fbc9,
fa0f,
03f2,
015c,
f5e3,
062f,
f79d,
072d,
057c,
04f1,
fa76,
f523,
f786,
00d1,
02e6,
03f8,
fbf7,
fa1f,
01a5,
fe9b,
f9c1,
fc02,
f1e9,
f849,
f96e,
f970,
04bd,
feb8,
f77b,
f749,
f6c0,
fcf0,
f6de,
011b,
012f,
f809,
0796,
f935,
f4da,
f969,
0225,
f645,
031f,
fbb8,
037c,
fbf1,
fcbe,
ffba,
028c,
f87d,
fee0,
f810,
fbc0,
fe28,
01eb,
f921,
fdf1,
00d4,
01fc,
055e,
fd97,
07c0,
f939,
fdfb,
fad6,
0282,
0351,
f406,
04d4,
0d13,
f74b,
fc63,
0531,
f75c,
fe98,
0a2c,
f4d2,
f62f,
f41c,
0558,
03e6,
f771,
f73e,
f68d,
fb05,
f7de,
00cb,
fd58,
fc40,
fc4f,
ffdf,
f4fd,
f9f1,
f93e,
fe4f,
0556,
0605,
ff05,
00d6,
f91f,
fc71,
f72b,
fb0b,
fa38,
ff24,
0461,
04ad,
0215,
02b8,
0006,
fa00,
031e,
f6bf,
fe99,
fd9c,
0246,
fe53,
fa2a,
fc8d,
0523,
f647,
0a5d,
02f8,
01c2,
ff75,
ffac,
ffdf,
02a4,
f32f,
fd57,
fe04,
0262,
fa00,
0283,
04f6,
0140,
0a66,
02f7,
00d7,
0589,
00e8,
11de,
f8c5,
f957,
fc6d,
0d2e,
03a4,
06e1,
fa69,
06d2,
fdf1,
f831,
f7d6,
06dd,
03cc,
ff12,
0184,
fdee,
ff08,
fb9a,
f9b3,
04ae,
0527,
0cf9,
f736,
f40c,
fe27,
0304,
ff3b,
0aae,
09d2,
0476,
f09c,
04a5,
fc49,
fc63,
0512,
052d,
08ef,
eec8,
00f9,
fdbc,
fdc3,
0413,
ffa2,
fd8c,
00c8,
ed67,
f7ee,
f745,
03b0,
03d2,
ef4f,
0871,
0290,
f9df,
fd97,
1179,
00b9,
fea4,
002d,
0430,
fed6,
f70b,
10a4,
0535,
faaf,
fa89,
0207,
fba9,
0584,
08f6,
03e2,
0057,
fb26,
fb48,
0c85,
0392,
0898,
f702,
01f2,
f610,
f02f,
f221,
f6d7,
fab3,
0214,
ee0a,
0bfa,
0d15,
0347,
fa18,
1052,
f60a,
f7f3,
07de,
0a63,
073c,
f97c,
f91a,
fcd5,
05d0,
ff25,
0513,
0044,
0500,
0563,
0493,
070b,
fe18,
fc40,
0847,
f1ab,
0027,
0028,
00f6,
0408,
ff62,
f846,
fb11,
06ff,
f272,
f898,
061e,
f651,
0633,
0b45,
ffed,
ef14,
ffde,
f8ee,
0214,
07a0,
01c0,
ffb2,
f60c,
f913,
078a,
ffa8,
fdac,
1313,
fbd4,
fd21,
016c,
0fe6,
f700,
08ce,
0527,
f6b0,
0123,
f942,
014f,
ff84,
f73b,
fb03,
0151,
f7fc,
fd02,
f87e,
e74e,
08c7,
03e1,
0818,
ef8e,
fecb,
0134,
0bc9,
0462,
fc12,
094a,
0204,
0e4b,
05ec,
fbbf,
fe7d,
0bf6,
f332,
1c4c,
0624,
fcce,
fd2d,
f203,
0858,
fea9,
078e,
115b,
0e98,
05a1,
fb11,
f6dc,
f2fc,
1b53,
f58f,
0771,
04e0,
fd14,
0b1d,
0a59,
06c5,
0a1d,
039d,
028a,
0d81,
ff1c,
022b,
fc99,
f62c,
0901,
0156,
11e5,
0120,
f997,
0c78,
04db,
0332,
f023,
07ce,
fb63,
078c,
ff71,
fa7a,
f952,
fa87,
0468,
1294,
0528,
fa6e,
00b4,
eb53,
0c28,
fc26,
fccf,
0b6a,
fdd9,
02bf,
04c1,
04ee,
055d,
016e,
06f1,
0145,
fbb8,
044a,
0a0b,
0032,
fca0,
092e,
f5b1,
093d,
fe61,
07ef,
107f,
f644,
0699,
fb12,
0047,
fde6,
ea3a,
0265,
fffd,
04f3,
04d9,
f83e,
fcbb,
066a,
045d,
0bb0,
0ca1,
fe9a,
0d27,
fe70,
fd25,
014e,
07e8,
0afb,
1198,
0284,
fbdb,
04e5,
f331,
f5bb,
0e60,
0528,
f7c7,
00ca,
0184,
022c,
feb9,
fea9,
fd65,
09f2,
0cf7,
ec72,
fe63,
f8ba,
f091,
fd38,
f944,
098a,
fe61,
0072,
0ede,
f9e6,
0906,
ea10,
03f6,
f606,
f828,
090b,
0997,
f4f8,
0b3f,
0398,
f3bf,
0014,
0211,
0358,
009e,
0899,
07b3,
0804,
0817,
01d6,
0732,
026f,
0151,
ff53,
f8aa,
059e,
04e8,
04ec,
0c8e,
ef17,
fbd7,
f8af,
0506,
fb1c,
0cd0,
fdbf,
fd68,
0971,
0192,
009e,
03fa,
f3f2,
fa02,
06d3,
020b,
f12b,
1044,
1127,
00bd,
0a3e,
f9e9,
009b,
0cef,
0325,
f86b,
0048,
0873,
00c4,
f4ba,
0394,
fe0b,
0269,
04ee,
042e,
09a8,
1180,
0d21,
0d7b,
f5de,
fb39,
0533,
fc13,
f95c,
00a1,
0ab1,
0d40,
fc7c,
0821,
0321,
014d,
fe96,
0a68,
0940,
0273,
0683,
0b84,
08c7,
0783,
035a,
0396,
f3ea,
0466,
0c3c,
fd55,
0176,
fcda,
0ea9,
ee07,
11e7,
08fe,
f4f5,
0a9a,
fba7,
fc96,
06d0,
fb89,
f85a,
fc3e,
fa67,
ffc1,
01fd,
098a,
11ad,
fdce,
f943,
fa53,
02d2,
03d1,
06c4,
fe9a,
04c7,
f996,
fc1d,
f925,
fcba,
0270,
0469,
f63e,
ef87,
108e,
f02d,
05fc,
fb9c,
fa0e,
00b7,
08ac,
0a78,
ff65,
f614,
fcaa,
04aa,
06a6,
0a75,
0205,
e886,
0651,
05b5,
0b66,
0704,
f3a6,
0917,
fc6d,
07e2,
ef69,
0100,
f3c6,
00f4,
05f1,
06db,
f900,
0087,
0247,
f863,
1056,
0b02,
fa8b,
0921,
01da,
fba2,
faf1,
fac4,
0594,
0188,
050d,
f947,
fd4a,
031f,
00ca,
fe8d,
0f30,
f3ee,
087e,
fa77,
01a0,
fce5,
f714,
0b39,
fcc9,
fde0,
0a22,
080a,
fad8,
f5ea,
0728,
01bf,
fc8f,
fbc1,
00ec,
0d71,
0144,
0ca8,
fde6,
f946,
fa2e,
fcc0,
f473,
f889,
fb9a,
09fa,
0788,
0164,
0132,
feed,
fe02,
e36f,
eb2a,
fd43,
007a,
0413,
056b,
016d,
fbba,
f80c,
0a03,
0801,
fe5d,
fe34,
07c2,
04aa,
01ac,
09e1,
0519,
00df,
0677,
ff30,
f6aa,
f779,
f222,
f868,
f080,
feb1,
0081,
0759,
0393,
0924,
fd4b,
f2f5,
0a8c,
1180,
0331,
031d,
092a,
f74b,
ff08,
fc48,
06a9,
101c,
1594,
007a,
fcc5,
f541,
05df,
fa31,
fd4f,
02f2,
f9ae,
fd3d,
fb5a,
fcee,
f532,
0b58,
f58c,
f77f,
002a,
fd81,
ffc0,
02dd,
ffdf,
0825,
04e5,
0170,
0460,
0342,
0419,
04f4,
0957,
fb8c,
ff40,
0106,
0332,
0a02,
078f,
01ed,
05d0,
0337,
f9e3,
068b,
f766,
0754,
00df,
fa00,
fec9,
fd0b,
f635,
05a2,
ff37,
fdee,
f1fb,
059b,
fc0e,
0432,
ff3f,
ea0e,
0194,
01f0,
f7cb,
fe01,
f972,
06ac,
07cf,
0032,
065d,
f522,
0350,
fc1a,
f8a1,
fc63,
0268,
0030,
f307,
0a61,
02e5,
037b,
ffab,
fd1c,
0023,
0a84,
058a,
fd56,
02b1,
0aa4,
fd32,
fe85,
fda4,
f6de,
0887,
f89e,
f2f6,
fefa,
f1b1,
04f6,
0bc3,
02d7,
0155,
006e,
f407,
fe3e,
f8de,
0a76,
fe4b,
0926,
0868,
0cf0,
041c,
0362,
fe5d,
0149,
05ed,
27a4,
030b,
fc50,
0bf8,
0a00,
0096,
f6d0,
0bda,
00aa,
0899,
fe3c,
00c4,
f9bb,
0482,
f991,
0836,
f910,
0270,
e98f,
f783,
ffec,
0408,
0517,
f60c,
08b9,
f714,
0c24,
00c8,
feb9,
02eb,
f8cc,
030e,
0105,
02a5,
05ed,
fd24,
0196,
0054,
fcd1,
04e7,
0342,
0151,
fc36,
ff9f,
fe35,
fec1,
06e4,
073b,
030b,
01a7,
002c,
05f3,
f8e1,
01e1,
f563,
0796,
0697,
ff92,
0470,
ffe4,
ff0b,
fe4a,
057f,
0cc3,
fa1b,
f1e1,
fed8,
fe25,
fb4f,
0789,
f214,
fe66,
0048,
ffa7,
0324,
041b,
0278,
014d,
f8d4,
06ad,
0ab7,
07cb,
fd71,
0377,
fc5c,
f725,
0adc,
f277,
00c6,
030c,
fcab,
fbee,
062f,
0f65,
08c8,
0b9b,
fc87,
01ee,
0827,
0367,
0164,
ff76,
f690,
f2df,
0885,
fd86,
f890,
08bd,
0408,
07e5,
fdc4,
ffcc,
fc7f,
049e,
f529,
09c6,
f190,
053f,
03a4,
085e,
058a,
fc3f,
04f9,
0504,
f4b1,
04c2,
fe8a,
f292,
f8b5,
093b,
006d,
065a,
f42d,
0338,
f270,
048e,
0c56,
fb89,
04a3,
0a2c,
f993,
029f,
0624,
f907,
fc1c,
11dc,
ff4e,
0385,
f20e,
fba3,
0355,
f8f4,
02af,
f81f,
0479,
fb6f,
00f3,
0183,
067f,
051e,
05ce,
01d4,
0226,
fe82,
0551,
fda5,
f697,
09d1,
f876,
f645,
0873,
fd35,
f51c,
0672,
f099,
05e8,
06eb,
fbe3,
0538,
05a9,
f680,
04b7,
02fd,
fcf1,
09da,
0713,
f477,
0097,
fee8,
e6f7,
0076,
060c,
0425,
049d,
f695,
ed18,
0564,
0361,
03ff,
fddd,
fb0f,
f868,
003a,
fe2c,
0281,
ff0b,
fa47,
ffff,
f8c3,
03f5,
f799,
03d5,
fd47,
0fc8,
f5f9,
fe6a,
ffaa,
f2d0,
faa6,
08c5,
018a,
0b4c,
f756,
f208,
08d0,
02b0,
0557,
f723,
03ab,
061c,
0402,
0497,
0910,
0426,
f291,
02f6,
fe92,
0218,
06de,
1211,
07b3,
08ee,
f593,
fdb8,
01d3,
fb94,
07e5,
fdec,
fd7b,
0a6a,
13f4,
0c35,
f910,
076d,
0a3d,
0026,
14fd,
0002,
fefa,
ff6e,
05bb,
052d,
fe61,
0953,
0218,
0489,
f47d,
07e2,
fffe,
015b,
041f,
fdfc,
f730,
169f,
d516,
04ea,
02bd,
0c32,
0467,
008a,
05de,
120a,
085c,
007e,
ffdf,
03ee,
fc09,
06d3,
fe86,
01cc,
05c0,
fc01,
019e,
08af,
066c,
04f1,
ffd2,
08da,
0730,
0f98,
f706,
0669,
05a5,
0489,
fd7d,
f61c,
f7a8,
fa20,
fad3,
04a5,
02b9,
0ef4,
17a9,
fe2a,
fcc2,
03c5,
09ee,
fee4,
ff01,
f751,
f9e0,
f7a0,
10e7,
0331,
0f7f,
0f2e,
f425,
06c5,
ff3f,
0b9c,
0798,
f9b2,
f8c4,
face,
0365,
0d23,
0c32,
fe32,
f2d7,
068f,
0182,
f461,
089a,
fc4e,
00f3,
f1fa,
09c2,
fb79,
ffee,
1760,
0592,
fee8,
0164,
053a,
fa28,
f2a9,
ff96,
f52c,
f1a9,
eee8,
fc60,
fc9e,
01e6,
fd8e,
f9c0,
06c6,
0886,
f70e,
0204,
ee4b,
feef,
0cb0,
eb82,
02dd,
f817,
ffd6,
f743,
fd3c,
fbc5,
fb4f,
f8b0,
08a0,
00fe,
fc58,
f6f6,
050a,
0398,
f980,
fede,
119d,
f363,
0116,
f065,
0491,
f81c,
0057,
ffad,
083a,
0b6a,
fbce,
fd55,
0706,
01a8,
09c9,
e8e7,
0301,
fc40,
f4b5,
0052,
1351,
f1c0,
0237,
019e,
08cf,
fb28,
f3a6,
0085,
058a,
f60b,
0331,
fb07,
00c0,
fd79,
0925,
f702,
0a35,
09fc,
fc8c,
f8df,
04e6,
f32e,
f577,
0ab4,
034f,
f74b,
08f8,
fc5f,
02d8,
f5a7,
0402,
f6ac,
ff62,
02e7,
0a41,
fe84,
f417,
fb3d,
fe98,
0398,
0791,
01a3,
f8fb,
0442,
fe21,
f914,
f8c0,
066b,
fab8,
0277,
ff56,
0783,
fc58,
fb8b,
faf7,
f708,
02b7,
fb78,
fbdb,
f625,
0814,
fd7a,
fca4,
0367,
f314,
fa5f,
0551,
0101,
f946,
fe74,
03cf,
fcd3,
047c,
07a9,
fc9d,
031d,
063d,
0158,
fe1f,
ffc4,
0f33,
e334,
f570,
f751,
fe09,
0768,
0477,
f863,
fed5,
ef6c,
0716,
f911,
0131,
f7e2,
f8b2,
0a65,
0607,
fb3c,
0fc4,
fff5,
0803,
0e5f,
08cc,
0b5e,
0cd5,
f8fc,
fa47,
e312,
02bd,
f999,
fb87,
0bc6,
0019,
f49e,
0393,
0da3,
0589,
f825,
ff4f,
0376,
0e46,
eea3,
089d,
fd7d,
1022,
02bc,
0585,
fa83,
0b4a,
f783,
0aa5,
0db3,
0450,
1660,
ff8b,
001c,
0871,
0393,
052c,
0696,
04db,
06a9,
0697,
1027,
01c4,
fcdd,
0929,
f2d4,
041e,
0e17,
f7e3,
0876,
f5a6,
0573,
f67b,
f3d5,
010e,
09f7,
0025,
0cfd,
06dc,
fb1c,
febc,
fd96,
fec5,
f996,
011d,
f6fc,
fac0,
08c3,
074a,
f858,
f05a,
f818,
fae8,
0571,
fe2e,
01eb,
f89b,
fede,
06fc,
fe75,
07df,
f667,
fe26,
0767,
fd40,
fa87,
0527,
fe49,
fc98,
fbe1,
0a81,
fa28,
fd5a,
0557,
f285,
f979,
ef5c,
0269,
0a80,
fac1,
017d,
fcb7,
0685,
e24f,
ebd1,
f309,
0449,
056a,
fef8,
0191,
016a,
0716,
01b4,
fe70,
ff1d,
fd8b,
02c3,
0d65,
fd53,
0b0f,
fba5,
ec62,
0738,
0001,
fcd8,
f6ac,
074a,
f9e4,
fe76,
fba9,
0e1b,
0015,
fe97,
fc7e,
f887,
f6b7,
0a3a,
0250,
0498,
00be,
043a,
05c6,
046c,
fc90,
f25e,
fff6,
faf2,
0b04,
00b1,
f692,
0698,
0097,
fe5a,
0a72,
05a3,
f0d1,
0632,
fdc5,
0749,
0441,
facd,
fd32,
fc8d,
02af,
067e,
02b7,
036b,
fc42,
0a85,
020d,
ff1a,
05c1,
faf9,
04f8,
faee,
fcd8,
fec3,
0f72,
fb30,
0019,
0937,
042e,
0888,
0754,
fee3,
0210,
ff8e,
00aa,
0638,
0a71,
f873,
084d,
042d,
fa1d,
fe42,
f923,
ff70,
08a3,
01b1,
0aba,
f8b1,
fd65,
0082,
f47e,
fb52,
fce6,
0169,
0911,
07dc,
f7be,
0aeb,
fc46,
060a,
f9f9,
ff8e,
f820,
0a77,
fe98,
f65b,
025b,
03b4,
0482,
fa8c,
03d1,
fea2,
ff1b,
fd61,
fc62,
03af,
0062,
0751,
ffcc,
066b,
fdd4,
0830,
f128,
f181,
f713,
f0b6,
fd60,
0569,
fdc2,
facd,
01d6,
fa71,
00f8,
02d9,
fd23,
05a0,
0144,
fbda,
047e,
0731,
fd3e,
fb15,
0c21,
0617,
0f6a,
0355,
fb8e,
0418,
eaae,
fd34,
fff4,
0662,
00f1,
01ca,
04b0,
f948,
03eb,
028d,
0205,
fef3,
00b5,
0971,
f000,
08ce,
018f,
fa7a,
fd70,
fcc0,
fdb1,
05d6,
0596,
fc43,
0097,
0425,
0239,
0358,
fbc8,
099b,
00fa,
fe96,
fedc,
0485,
fe33,
078e,
00e6,
f7fe,
049a,
f50c,
fc7a,
fcab,
0034,
050e,
0bb3,
0a1a,
fa20,
fa37,
fc22,
fdd9,
0772,
0267,
fe98,
fc78,
fe0b,
04d2,
fefe,
07f0,
0444,
0abf,
08f3,
0673,
f725,
fab1,
f69e,
0282,
064c,
029d,
ff2f,
0c58,
fe6a,
0bcc,
0c75,
06c5,
07bb,
ff9c,
05c3,
fee7,
06b1,
02a5,
ff38,
fe22,
07a5,
0372,
fcd2,
ef2b,
fcec,
0752,
fab3,
0eb0,
fdf6,
11eb,
fbd6,
fa34,
1337,
0173,
05c1,
febf,
0dad,
07e2,
0c91,
0401,
fb45,
f504,
eece,
f687,
f6c7,
042d,
fb9b,
0346,
0975,
fa6c,
f2db,
0011,
0567,
fe3f,
166f,
0380,
f872,
0338,
0dcf,
fc08,
f856,
0d30,
f7a1,
ef99,
fc5d,
f950,
0450,
0f16,
fc5e,
0348,
098c,
0de4,
0136,
f1d4,
0696,
09f0,
0128,
0981,
f291,
07b1,
f85a,
0245,
0d24,
f5f5,
08ff,
fa20,
f01f,
0323,
1dfe,
fe90,
f8d0,
05af,
f80f,
f69e,
fc0b,
04a0,
0365,
f94c,
f05d,
fcc3,
03d0,
00a2,
0494,
ffac,
f225,
f586,
03e4,
0e56,
0942,
118d,
0299,
0983,
fc22,
05a1,
ff20,
053e,
fc2c,
06ca,
ff71,
047f,
0eed,
0330,
03b3,
0fc1,
f7b0,
ef85,
0643,
fae2,
fdb4,
fe2e,
fde6,
f5f9,
0012,
05a9,
056f,
035f,
0650,
f9d2,
02d8,
06e5,
047a,
001e,
0710,
f89a,
06e4,
fcbe,
06eb,
02f2,
0496,
0581,
03cc,
055e,
082b,
0589,
03ce,
f398,
00d3,
0b61,
fc79,
e757,
0411,
066a,
0905,
fdfa,
fef4,
f709,
f869,
f8cb,
2098,
06f0,
084c,
0904,
f6b2,
002c,
0014,
0437,
f38e,
0879,
f550,
fe20,
fd2f,
fa88,
fb46,
f7cc,
ee1e,
fe7a,
0ae1,
effb,
f2b5,
044a,
fb93,
00b9,
0f52,
0c94,
159a,
f802,
fad3,
0182,
0b31,
091b,
0a06,
0de4,
0b56,
05b0,
f6e9,
04c9,
0a14,
f84c,
046a,
fa16,
03f1,
f7fe,
f93a,
fbf2,
f88d,
0080,
08b5,
fc07,
fcc7,
0706,
fc74,
f82f,
0127,
f184,
fb2c,
fb95,
03a2,
092f,
055d,
f916,
0ac7,
fe9b,
f99b,
1326,
fc82,
f32b,
fc88,
021f,
ff3f,
0886,
152e,
f8be,
ff4f,
0b69,
fb3d,
eea4,
feed,
09c6,
0512,
febd,
0a6d,
03d5,
f9ab,
03b2,
000c,
1097,
0984,
f38d,
0860,
fc9d,
0206,
fd39,
fbfc,
024c,
fb68,
fb22,
03fa,
fca1,
0c71,
020a,
07c4,
f494,
fb44,
02fa,
faac,
0792,
fa01,
01b8,
0109,
041a,
fc3f,
0539,
f59c,
f93b,
f53f,
03b1,
ebc6,
f77d,
ed11,
f8ff,
0596,
fec0,
0d4d,
f701,
f5ab,
0013,
06bf,
f9ca,
e79d,
f657,
fb1f,
ee75,
f7a8,
0e9b,
eeb7,
ef13,
02a2,
f029,
feb3,
0bc3,
0970,
0591,
f6aa,
fb9a,
05f9,
f915,
eca7,
03f1,
f5ce,
e454,
fab9,
fb59,
0871,
fc80,
00b2,
05ba,
09a9,
1481,
e3d8,
fd48,
034e,
0d45,
f7a5,
fc41,
0efd,
f2c4,
0a9d,
050a,
f5d5,
f5ab,
06c3,
f9f0,
f9e7,
0060,
1546,
fe28,
ffcb,
fb04,
0171,
fd1b,
0733,
07a8,
ffae,
ef9f,
0b11,
f95f,
f54d,
0248,
079c,
06fe,
f9ae,
fdae,
faab,
0603,
fb9f,
0619,
0466,
08ba,
0b7d,
fb50,
1e05,
ea79,
f93b,
080b,
f5a8,
04bf,
03c5,
f537,
0c6e,
fa9f,
079e,
f6c8,
0240,
f60b,
0e3e,
ffa2,
ff9d,
f72c,
0846,
1b19,
edad,
0c14,
fdcc,
ffaa,
09a1,
0a67,
f7e3,
f0c6,
0aa1,
16bc,
020e,
e8b0,
07f9,
04e3,
0fb7,
0947,
fffd,
02de,
0ca7,
fddd,
013d,
f4c5,
043d,
f892,
007d,
04f6,
fc58,
06e2,
fe9b,
064c,
0098,
ed57,
0f3b,
ff59,
08c2,
0bcf,
0c30,
1568,
f43a,
086a,
002e,
0266,
077e,
093e,
faae,
f4a9,
f83e,
fe43,
fe42,
0156,
0c81,
0a95,
06b9,
0281,
e267,
04fe,
0695,
0c95,
0668,
f6ab,
08ba,
f5cc,
eab5,
ff68,
fc52,
fd58,
053c,
0215,
0488,
ff8a,
07d0,
e690,
05f0,
f94f,
06ee,
05d7,
0556,
ead8,
04c9,
04c5,
f0b9,
018f,
fc77,
0321,
f7c2,
e53b,
edd1,
f9b7,
fca4,
f789,
f708,
faaa,
09df,
0910,
fd13,
f15e,
ede6,
ff57,
ff97,
0018,
ffdc,
0a44,
f72b,
f38c,
01c5,
f97f,
03d1,
0d1a,
0a65,
feb4,
0a87,
e720,
ef65,
0822,
0f87,
010b,
02df,
0356,
f2ae,
fd43,
fb8a,
fd18,
f952,
0ee2,
0790,
130b,
004d,
0306,
013b,
01ce,
f1c3,
07a2,
f6ea,
fa4e,
fbb0,
0397,
f78a,
0d45,
fa35,
fd82,
02a1,
ff5d,
f5b4,
093c,
fe6f,
08c1,
027f,
04e5,
fb9a,
00d1,
0604,
e955,
02f7,
0a6e,
0b99,
fae9,
0043,
f4c5,
fec2,
02f3,
fd60,
0a97,
f8df,
ff39,
04a8,
1024,
f754,
0002,
0821,
fdc1,
0331,
fb55,
fce4,
fefb,
0136,
0ab2,
fb5f,
ff71,
f438,
f114,
05b5,
03b1,
0c69,
fab1,
fd31,
f668,
f34f,
03fc,
f397,
090e,
18ed,
fef0,
f570,
f29c,
06b9,
04d5,
054e,
0f98,
035c,
03ae,
02b1,
ef65,
0753,
f08c,
09cf,
07d0,
081e,
116b,
046e,
fc3a,
ef0e,
03aa,
0707,
0615,
0f7d,
0b02,
fe86,
03c9,
f90f,
ffef,
095d,
04d0,
06ca,
f67e,
fe4f,
0947,
fa88,
0ad7,
0230,
1786,
0072,
ff6d,
fbf4,
e285,
0073,
f799,
ff15,
0a1f,
085f,
fa96,
f281,
f24e,
fe89,
0618,
fcd3,
0370,
ef2c,
004d,
09cd,
0762,
075b,
0ec7,
f72c,
fddc,
f945,
00a3,
0307,
f8d0,
fcaa,
031c,
f815,
f65b,
f9bc,
f74f,
fd69,
09ca,
0437,
0702,
0810,
08ae,
009c,
0052,
003d,
08a2,
fc7e,
00ca,
00d4,
0311,
022d,
ef21,
0860,
0cb3,
ff08,
0015,
f23b,
fd02,
0641,
fe75,
ffd6,
fb70,
f7cd,
fbe8,
0738,
0d34,
0e6e,
ff71,
00e4,
060b,
fe25,
00e2,
01bc,
024f,
fef8,
fbee,
0226,
f80b,
fe36,
0c74,
febb,
fb8e,
fd1b,
00bf,
fcad,
0e46,
fc2a,
02ae,
f243,
0322,
08ac,
fea7,
0332,
0451,
0b0b,
fd26,
0cb3,
eebd,
fefa,
0690,
0e2d,
fe53,
1989,
04c6,
00dd,
f0e6,
037c,
05f3,
072a,
f762,
0dc1,
0a7a,
fe8d,
0520,
fc60,
f43d,
ff29,
f842,
f9c3,
0123,
0b9c,
ed83,
042b,
0270,
f5d8,
00a3,
0658,
e366,
0447,
f902,
f811,
fcdc,
044b,
fe8b,
0c6e,
0d56,
0799,
01dd,
fe9e,
06fb,
f56a,
033c,
fac1,
0120,
062c,
fffa,
fe1a,
f997,
f5e8,
ef81,
01a4,
0e67,
e3e9,
0755,
f551,
f87a,
003d,
0299,
f9a0,
0aba,
0250,
00df,
05f5,
018f,
02ff,
f56f,
0760,
f991,
0127,
ff11,
05a0,
0369,
fdc4,
fdce,
fd51,
00dc,
fb88,
f65b,
061f,
1080,
f48a,
f730,
f894,
fd5e,
0358,
0135,
0c1c,
02c7,
065a,
00c7,
024a,
f9e6,
0243,
0046,
fa4c,
efe6,
f9fe,
08ba,
0481,
fb6d,
fcb4,
fbe2,
02e3,
08d3,
0670,
07fd,
03df,
0442,
fe17,
014d,
fbd4,
0a00,
f273,
f9f8,
01c2,
f7d6,
f4d3,
0c7b,
1229,
0693,
015d,
0a64,
0837,
0645,
fd3a,
fe6e,
fee9,
1407,
f0c5,
0cbb,
04df,
fbce,
ff1f,
ff17,
0248,
fe92,
f522,
021e,
1788,
ffe2,
0e24,
f881,
036a,
f747,
0707,
0289,
0089,
f761,
04e3,
04a8,
00c4,
0469,
0a1e,
ff8a,
fa7d,
fd14,
0829,
0893,
0ce5,
0af3,
f390,
0dd0,
fed0,
fed6,
0d6c,
f6b9,
0487,
0795,
f5b5,
0221,
04ba,
f912,
fd02,
0394,
f2cc,
f774,
fe56,
fbc2,
0ba0,
fcc8,
f7b4,
f827,
026f,
0e0b,
f1b7,
0db9,
ff57,
fcab,
079a,
0153,
0086,
036b,
00fa,
ff42,
fe63,
f98c,
0a32,
04eb,
03a2,
01e4,
095d,
ff0c,
0ae4,
060a,
ffb6,
ec21,
f6a8,
fe55,
062b,
fe3a,
0b5d,
03fe,
041b,
f86a,
08ef,
f970,
ffa1,
f11f,
1373,
0694,
fda6,
08e6,
fec9,
0975,
fc5c,
fab8,
f69e,
fc69,
0199,
f58a,
f80a,
0339,
ff03,
01d2,
f437,
019b,
059e,
00af,
ec0d,
0bc5,
f89b,
0ca6,
084b,
078b,
1175,
fc8d,
07d0,
00b2,
fe7d,
0653,
0b1d,
0b7c,
0c54,
ffae,
04a7,
05a3,
125f,
ef11,
154d,
0aec,
06f8,
fc2e,
f609,
0d30,
f8d6,
fb78,
14bc,
fcf1,
0040,
0cf4,
02d0,
f922,
ff1e,
fb09,
fa43,
f59e,
0831,
0cb0,
fa2e,
077e,
f8fd,
fa64,
092b,
fd26,
08b8,
ff48,
0505,
fdee,
0031,
0d39,
1352,
02dc,
fc8b,
08c5,
f725,
f0ad,
fdaf,
08a4,
0ace,
0a67,
ffe8,
fd54,
f8a3,
f67d,
0bf1,
0850,
f822,
0506,
0dfd,
059a,
00e6,
f616,
fc8b,
fb42,
02bd,
02d7,
fcc4,
fec5,
02c6,
05a5,
0145,
0b3a,
fc44,
01dc,
fe18,
fd07,
0236,
fb72,
fc67,
0d92,
f348,
0343,
f4e2,
fed8,
00e6,
f207,
027c,
fe55,
0c29,
fcee,
04fa,
0260,
e578,
f099,
fcfb,
fc70,
f8ea,
ffb4,
0123,
0886,
0069,
0abf,
0383,
10e3,
f764,
049d,
fc6d,
0050,
06c1,
04d8,
0737,
07fd,
e526,
f725,
0065,
f591,
fec8,
f819,
04c0,
0818,
fac0,
01bf,
f91d,
0ac0,
07d7,
03e7,
03bb,
03a4,
f8ea,
fb50,
fea1,
0009,
fbbb,
f70c,
074c,
0695,
faf4,
f5ff,
00b3,
01ad,
fc3b,
09c9,
04f5,
04e6,
f5e7,
0121,
fdaf,
fa35,
fed7,
04a4,
0c1f,
06b6,
fbcc,
fec5,
0811,
0453,
fd6f,
00f0,
fdfd,
fe05,
030f,
ff3f,
0164,
09c9,
fe4f,
0732,
0690,
01a2,
04df,
04a0,
fd6c,
0653,
fd97,
f9d5,
0544,
0351,
fb4c,
017d,
0074,
ff31,
ef9f,
f716,
05c3,
00bd,
feb5,
f3c8,
fcba,
0411,
059a,
0dc5,
f463,
0034,
0126,
04e0,
f697,
0480,
f402,
0bcc,
fc83,
05e3,
fe86,
030a,
02d0,
091a,
fcf1,
065a,
fc57,
f9ce,
f5e9,
f816,
feef,
04ce,
00c0,
f5d1,
fee2,
0be4,
0284,
fdee,
ee27,
03fd,
ffe5,
00bf,
096b,
04d7,
f1ff,
00a4,
f30c,
0038,
0d59,
07cf,
0389,
01e7,
f264,
f655,
ffdb,
01c0,
0536,
fdce,
f992,
fa91,
120c,
07fd,
0681,
f879,
fb0b,
fd20,
0350,
ff85,
0530,
0b2d,
faec,
01a3,
019f,
fee9,
fc3f,
0e29,
f9a2,
0385,
0637,
ffe4,
fd05,
003d,
0c7f,
0706,
f082,
ff69,
0185,
0268,
0501,
fef4,
036a,
04a2,
0717,
00a9,
044b,
ff9f,
fe22,
fc47,
02bf,
0978,
f9cb,
0673,
05ce,
010f,
021c,
fa8b,
faf8,
0285,
0131,
fd7d,
feeb,
012b,
f690,
08e9,
fbda,
fe8e,
0175,
04e5,
f48c,
020c,
f765,
075f,
0b13,
00b1,
00cd,
0002,
00e0,
01c2,
0935,
f894,
02e0,
f319,
03b4,
f6fc,
fbd9,
02cc,
ffb8,
0a1e,
080d,
0055,
ffd6,
074b,
09f4,
fc07,
0398,
fe30,
0135,
ffbd,
fdb6,
0126,
f932,
0a57,
0114,
0af8,
0d69,
0598,
fdf5,
ffa3,
fb5e,
00ea,
062e,
ef80,
0928,
fc71,
0217,
0882,
fe10,
fb49,
0afe,
03cd,
fedd,
fb93,
ff19,
fde7,
fdc9,
03aa,
fe05,
fc07,
006e,
fc01,
fd4f,
fea8,
054d,
011c,
06b9,
fd75,
ff78,
0695,
e178,
05d2,
0196,
02d7,
f929,
075b,
08ae,
faca,
0247,
fcd1,
fb03,
0b4b,
f407,
fe33,
f79e,
0611,
f656,
f51b,
0752,
f9b4,
037f,
048e,
f3f9,
0250,
040a,
0ac6,
077f,
034f,
0906,
0823,
fc2b,
0c18,
00b0,
02bf,
061f,
fd7d,
0283,
ffce,
01d9,
f5a4,
0743,
03be,
f0d0,
02e0,
fa0a,
04b9,
0358,
03d3,
07ee,
fb4e,
01ce,
e604,
0354,
fe92,
00cc,
0623,
08ec,
0663,
ee11,
fb2d,
f84e,
08e2,
fa42,
0058,
0674,
080f,
fecb,
18e9,
025e,
0578,
05c3,
ffc8,
f9fd,
084a,
fa7d,
0588,
0cde,
ff5c,
f869,
08cb,
f724,
089b,
0b98,
010a,
0223,
0dfd,
01f6,
f2db,
fd9e,
f0f4,
0646,
f93e,
06e6,
049d,
0179,
02c0,
f599,
005e,
04f3,
0172,
fbbd,
129c,
fe7e,
e70b,
04e6,
056d,
feb7,
0541,
facb,
f9f5,
0c06,
0124,
16c4,
ea88,
01ab,
fcca,
05e1,
ff16,
0e5b,
f933,
f744,
048d,
0478,
f980,
fa72,
0032,
037b,
fa10,
067d,
fb4b,
0cdf,
fb97,
0091,
ffb8,
f253,
ff06,
0922,
fa1c,
f7c5,
0300,
f498,
00fb,
0799,
fe1e,
00e8,
00b3,
fe43,
0565,
039d,
ffe7,
01bf,
fbbb,
145c,
0265,
0534,
fc13,
f064,
0a63,
0562,
f8cf,
f5bb,
fac9,
0b0a,
f478,
fcbc,
faef,
11a5,
fcd1,
fc35,
02f3,
016a,
04d1,
fe39,
02b1,
f91b,
0e28,
f649,
083c,
f847,
fe05,
fc82,
0052,
00ef,
0973,
ffa8,
f626,
0584,
0bc0,
09d1,
f656,
f996,
0aba,
0459,
098f,
05b6,
0286,
f91f,
0d85,
0904,
0471,
f864,
f487,
febb,
fbc4,
091f,
f518,
06d3,
0a15,
fe9f,
0360,
0320,
f9e0,
0c6f,
0124,
fd98,
f8a3,
013a,
033d,
fc23,
fd33,
fcb0,
076b,
0b08,
0cae,
0019,
06cf,
0b1e,
fbb9,
fc7e,
060a,
f491,
fb61,
f399,
09ae,
059b,
0599,
0f04,
0836,
0434,
fcf6,
ffc5,
0010,
ff62,
fa67,
0bd5,
f3b5,
0462,
1333,
0f9c,
0146,
fee2,
0e2e,
fc6d,
f9af,
06fd,
0796,
0649,
02d3,
0e1c,
fa36,
eca4,
03c1,
0489,
0fe8,
ff4a,
037a,
01be,
0293,
0130,
0597,
0f92,
0054,
ff2e,
0415,
fde7,
f4b7,
f085,
fd45,
f7e6,
0b22,
fd5f,
09f0,
138a,
0875,
08ac,
fbd3,
fb23,
f4a0,
09c7,
02f4,
f1b3,
f5cc,
fa52,
f9f1,
02d0,
ff73,
036e,
fbec,
fe8d,
0217,
0177,
ff18,
00a8,
0058,
060a,
02d3,
0d65,
e346,
fc38,
fa37,
f887,
003d,
07a6,
0ee3,
089e,
02cc,
f7bb,
fd13,
ffd0,
0a31,
f841,
05f9,
06d8,
0a1e,
fc1c,
0578,
013d,
066a,
0074,
0b71,
faa0,
0274,
09fe,
111f,
0b1e,
0be0,
f7a4,
025f,
ff30,
0046,
f9cd,
ff59,
04f2,
0160,
f7de,
00dd,
01ca,
f649,
1735,
fc5f,
0699,
fd5e,
0878,
0bf5,
0667,
0040,
0bfd,
f991,
f0d0,
f8ff,
022b,
062c,
055f,
fd47,
f842,
ff18,
0656,
fe69,
094d,
1054,
06a2,
fe7e,
0149,
066a,
fc5f,
eb80,
0ca0,
08bd,
015e,
fcd4,
081b,
fc91,
ffd9,
fc4c,
f7c9,
e8b2,
0152,
fa2a,
f37d,
f4d3,
f63a,
f6f0,
05ff,
01b9,
0aa4,
0422,
04ce,
ffc3,
fa10,
f890,
04cd,
07d4,
fc13,
0df0,
06bf,
f7fc,
fc7b,
ee35,
039c,
f822,
0175,
fdd4,
f8ed,
f558,
f8d0,
022f,
f51c,
ed14,
ff81,
fe20,
f1c3,
08a4,
035c,
0978,
00a9,
040a,
04ae,
fa28,
ed4e,
02ab,
f054,
00f9,
faca,
ff10,
07c6,
f23d,
05f6,
007c,
fca6,
0462,
f3ed,
02b8,
068d,
f7cc,
fa53,
f281,
f2d9,
f8a2,
0106,
059b,
fd5f,
0a75,
049b,
0163,
0495,
088e,
0a5d,
f177,
10b1,
0076,
0beb,
007f,
f8f2,
06e4,
0919,
0108,
0208,
fe56,
f8b9,
fdbb,
0322,
060f,
02a3,
0308,
fb64,
ff83,
02bd,
ffb8,
00c5,
0a7c,
0790,
fb15,
01cb,
14e4,
0498,
f3ef,
f7dc,
f8a2,
f5e0,
0869,
0515,
09c9,
10f0,
fc54,
00fc,
0162,
fbc0,
0942,
fe5a,
0069,
055e,
09e5,
01a3,
0179,
f85d,
f715,
fb4c,
0fd2,
f836,
fea8,
fe0b,
fad1,
f903,
0ace,
0bcc,
01ee,
05a9,
f8a4,
fbcc,
1246,
011a,
0775,
f8b4,
10f3,
f3d3,
e739,
f3ee,
f393,
00f0,
0289,
fa55,
fbe6,
0d10,
f685,
fdf4,
0c8f,
02fe,
01e1,
0c46,
f97b,
05d5,
064c,
0acd,
0196,
fecb,
04f9,
03a2,
ff72,
fb69,
fd39,
0296,
111a,
f952,
f57f,
09da,
f8dd,
f720,
f7f6,
f9b8,
05fc,
007d,
0b70,
051b,
f683,
f70a,
fde3,
0288,
f04e,
09f0,
03d8,
f051,
0baf,
0a71,
01a5,
fe02,
fb29,
00ec,
fde5,
f001,
f275,
022b,
fde1,
0973,
04fb,
0150,
00c7,
f6a1,
fd84,
010a,
0a79,
0100,
0013,
f9b6,
02aa,
010b,
f9bb,
fbca,
ffd7,
f78f,
fbf7,
0004,
09ea,
0110,
02c0,
0720,
f8da,
ff77,
00a5,
fc2a,
0281,
019f,
f6fd,
fa15,
f762,
06b1,
06da,
f89e,
047a,
fa4f,
0457,
fc16,
f486,
0327,
f3ff,
fe5a,
0ad9,
075a,
00f3,
10f7,
061d,
087b,
02ee,
06f4,
03a3,
0403,
042b,
ff0e,
fd7e,
faa3,
0844,
071f,
f9e0,
f635,
f73f,
f7ca,
f9f9,
de0a,
fe12,
fb3f,
fed1,
fb55,
024b,
f6b4,
fada,
07cd,
0178,
01b8,
023d,
030e,
045b,
0004,
01b0,
fbd1,
17c5,
eb52,
00c3,
077c,
f99d,
f4d9,
00f3,
f93a,
12d1,
fc33,
08c5,
0585,
09cb,
fede,
f129,
0bbc,
fbc6,
08a9,
0b79,
05f4,
fd6f,
01e1,
f956,
08cb,
035c,
fd23,
1c01,
045e,
0fc0,
fb80,
fcae,
0944,
fbb0,
fe55,
0ab6,
00cb,
06cd,
02c7,
ffc1,
1828,
f68d,
f5fb,
fcca,
07b8,
0331,
f74a,
fabb,
013a,
f98b,
0cca,
0a82,
0631,
067b,
04b4,
fd43,
f9ec,
f90f,
f7e9,
0488,
0383,
03d8,
fcb0,
07c6,
057d,
00d2,
0157,
ffdb,
0836,
fab3,
0862,
0815,
fc6a,
fe2d,
f874,
07e7,
0453,
058f,
0936,
e6d3,
09ed,
0137,
0233,
0cd1,
0325,
09d7,
f4b6,
06e2,
f589,
0010,
039f,
f9f9,
0f36,
0bcc,
088e,
0d1e,
0b7b,
f0b2,
04b5,
04d3,
020a,
fe0d,
0b44,
0608,
f7c1,
0092,
ee74,
fe1d,
ed5c,
0074,
094d,
fb8b,
ff34,
00f6,
f7e0,
080a,
058a,
f61b,
0337,
fea9,
f4dd,
f031,
130a,
069e,
fbad,
07cd,
fddc,
fcf7,
0453,
f1e6,
0a80,
00f1,
fe20,
0895,
01d2,
1127,
0f8b,
043d,
e5c9,
028e,
f5ac,
0455,
0eda,
0a04,
03b7,
f6c2,
fcec,
0ce4,
0676,
0026,
0d3e,
00df,
fa88,
04ad,
ff3b,
0a84,
00c1,
0712,
fb71,
08af,
07db,
ff67,
fc91,
0159,
0559,
0c9a,
0604,
fddc,
f9b5,
034b,
01ac,
0578,
f4dd,
f40a,
fae1,
06f2,
f795,
fb0c,
08fa,
015f,
02ff,
0bf3,
f85d,
edb4,
1481,
00e7,
f0e1,
f7cd,
f57b,
0453,
fe20,
056e,
047d,
fead,
067e,
0c1c,
fd96,
f62e,
f9ad,
06b3,
fe51,
067c,
ffe7,
06bf,
03b5,
0ef5,
061f,
f2ca,
0a8c,
0ca7,
f790,
ff7b,
f693,
fdd4,
fe21,
044f,
f9db,
fc9a,
f4b1,
ea86,
f9fe,
f9fc,
09a9,
f95a,
0437,
ec7d,
f907,
07f5,
0081,
01aa,
002a,
08a1,
fdfc,
f9b3,
fcc4,
049e,
053f,
0511,
06e0,
07ae,
0a26,
fa7c,
0087,
0b6e,
ed7c,
fe7b,
072e,
0322,
feb5,
ffa3,
fc94,
fae9,
065b,
fefa,
0192,
0428,
f6f9,
05d5,
ff21,
0bbc,
0139,
01d5,
0405,
fc7b,
01c1,
f517,
01c1,
08c7,
078c,
091b,
01d7,
04d0,
e9ff,
fd4f,
0946,
ffe3,
fdd0,
f30b,
ff1c,
0702,
00cb,
f624,
fce2,
dfab,
087c,
03f7,
fe53,
ff38,
fb16,
030b,
0d9c,
03d2,
08e2,
fd8c,
03af,
0637,
f765,
0409,
0148,
0007,
ff2e,
0471,
0394,
0681,
039d,
01e8,
010e,
0388,
e276,
fb84,
fdb1,
0642,
fbd8,
0205,
03b5,
07d4,
06f6,
f9b6,
054b,
0990,
fbb7,
04bb,
0246,
fd26,
0396,
02f7,
0922,
fa77,
08da,
0af6,
065f,
ffb0,
fffb,
0636,
fbc2,
0092,
f6cf,
f67d,
0720,
08e0,
0bf9,
fd50,
f7e3,
f700,
fb0d,
0071,
0199,
049d,
fbb8,
fd1f,
02ea,
035d,
ff6a,
0f93,
f60b,
f46c,
f37d,
faf3,
0131,
0759,
fbf9,
081c,
08a8,
fcff,
fa90,
fc0a,
f546,
f832,
ffec,
fa53,
f99d,
0122,
f7f5,
06e8,
f046,
019b,
0931,
02b1,
fcdc,
04b5,
f94b,
f6de,
fc58,
096d,
0606,
028f,
0a0f,
06f5,
00e9,
fc0e,
f8df,
fa66,
02fb,
fdea,
0bd4,
ff85,
fad3,
0580,
fad8,
0571,
0502,
0491,
f96d,
f635,
02b2,
fd48,
fb08,
f994,
fecc,
02a8,
05b5,
fa1b,
094f,
f725,
02b3,
fef7,
fd3b,
05e7,
0e25,
0491,
0728,
fbb4,
fccc,
023d,
0a22,
fbec,
fffe,
fc67,
fa18,
02de,
0103,
fa12,
0298,
022b,
fbe5,
01a9,
087f,
05fe,
fd8a,
0b0f,
ede0,
0445,
fb9b,
f7a3,
ff90,
fae0,
07ed,
04da,
0457,
0c16,
fd25,
fbb3,
f8ac,
0944,
0705,
f9dc,
fe6d,
f064,
05a9,
0903,
fd32,
faf3,
f909,
049c,
085f,
066a,
0414,
0151,
0752,
ff95,
fd4c,
f901,
0a5d,
0244,
0835,
0a9c,
f6c5,
f4f0,
1683,
07ce,
0c4e,
fee2,
0449,
f53f,
fb55,
fffa,
fda1,
fd6d,
fc7a,
0611,
0eb5,
07af,
f8e5,
f6b1,
07c1,
0984,
05f3,
0309,
0469,
fbdc,
1ab8,
f857,
effd,
0775,
03f7,
03ab,
f8bc,
060a,
f67a,
fdbd,
f9f7,
0576,
fc41,
07eb,
ef9f,
0488,
fa5c,
04ce,
fa71,
f659,
fec6,
0474,
048a,
f118,
fdcf,
f852,
f6f0,
0b42,
ffda,
f77e,
013e,
f8e6,
014a,
053e,
0484,
028d,
f8d7,
ff21,
fe3c,
065f,
0304,
007e,
f823,
0827,
081e,
0378,
fe93,
fe21,
fdf2,
0268,
ff61,
0198,
1304,
0779,
01ff,
fee7,
0aac,
fe6a,
0409,
05fa,
0038,
fb89,
002a,
03e4,
fc16,
10ca,
fdad,
f709,
00d6,
facc,
0797,
037d,
04eb,
fdfa,
0ad4,
010b,
008c,
02ed,
0358,
fa95,
01f1,
f0c4,
075f,
fef0,
fdb0,
ecce,
fe96,
fd21,
0499,
fbf0,
fd76,
0602,
031e,
fb05,
ffd2,
0977,
fa62,
fbcb,
feb4,
fdc8,
0a54,
034c,
06cb,
fc6c,
032e,
f1df,
f365,
0341,
0338,
f31e,
0d4c,
065e,
09f3,
fdf8,
06cb,
faa8,
0c32,
f9bb,
14a8,
01c1,
f68f,
08f7,
ff86,
011c,
fb71,
f29a,
037c,
fa3a,
0007,
0969,
fad8,
05d2,
ff40,
fc59,
0f06,
fb48,
03a4,
0008,
02b7,
f902,
0762,
0b07,
0342,
035f,
0ad3,
fdb1,
03ab,
fa1d,
ff58,
fd4d,
0a9d,
f773,
f9a4,
07c0,
05d5,
f52e,
f765,
06e6,
f533,
f735,
f51e,
fb32,
f596,
ff97,
0a88,
f9bf,
fa18,
fbf9,
fa7f,
03c9,
f3d1,
06ed,
f881,
f25c,
0380,
00ed,
0026,
f8db,
03ca,
005b,
f844,
f319,
0e05,
f6b8,
f97c,
fd04,
ffbd,
fc05,
0001,
f942,
fe81,
fb3b,
0630,
f34e,
ff4b,
fc01,
0d78,
f9bd,
026f,
0013,
fd74,
fb3a,
ff57,
0149,
fdd0,
0315,
04f7,
0740,
fb30,
fbfa,
0214,
f7fc,
01cc,
0e13,
0466,
06ab,
ff54,
f0d3,
fc0b,
f56d,
032b,
fa76,
f765,
0328,
f9d3,
fd14,
fe5a,
065f,
015d,
fefb,
fe9d,
f2e6,
ff94,
0a78,
027a,
03f5,
faf9,
0679,
fe39,
fe51,
f7ce,
0dfc,
0c73,
04fb,
f979,
033d,
fada,
02c0,
fa90,
f8ed,
0ae5,
f92c,
22b2,
fd96,
fdb1,
08a1,
060c,
01e2,
fee5,
0c75,
fca8,
0bf6,
fce2,
02a2,
018e,
00dc,
013d,
fd0c,
024e,
147e,
0109,
f8f4,
00af,
fc8a,
f9cc,
00d2,
0027,
f392,
fcd6,
0573,
0230,
0344,
03c8,
01cd,
f9c3,
facb,
f7bd,
063a,
0469,
f982,
0739,
fd35,
0395,
f0c7,
038d,
0d89,
fce3,
09b0,
010d,
fe3a,
ff99,
01cb,
01e3,
01e2,
f607,
fd5e,
ff87,
0647,
113b,
08a3,
fd59,
f8b7,
0432,
f95d,
09ed,
0501,
f285,
0338,
013a,
0693,
fc19,
084c,
fc9c,
0dec,
fccc,
02ff,
f88d,
056a,
017c,
f828,
fb5a,
0daf,
0beb,
07a6,
ff34,
08bf,
051c,
fd84,
f439,
02e5,
f8ff,
003d,
028d,
0889,
004c,
067e,
049d,
f213,
f9f4,
08e4,
1039,
faa6,
f940,
0096,
ff88,
f864,
0303,
0020,
f440,
fcc7,
07ad,
111c,
0339,
fcb6,
0510,
01b4,
ffc1,
008b,
0013,
fab0,
0383,
00c5,
f7d1,
fa1b,
0531,
f610,
04ef,
0578,
0c89,
0795,
f6cb,
fe29,
0018,
faa0,
fcfc,
0356,
0892,
f415,
efa2,
f37f,
fcd3,
0cd4,
ffa5,
0c18,
fc7b,
f9a6,
f990,
f2b8,
07f4,
f8d9,
fc66,
0334,
fad4,
11c9,
0ada,
f9f5,
f445,
fd46,
09f1,
0ce9,
ff2c,
05cf,
fb11,
0eb8,
f981,
ff5e,
0ada,
0036,
08b4,
ed08,
03aa,
05cb,
fb3b,
08ac,
070e,
1772,
ffcc,
ff73,
07dd,
e4a7,
fc92,
03a3,
0411,
0297,
07fa,
ef58,
fe9e,
e20b,
f9f9,
04bf,
f0c4,
0368,
f8a6,
09e3,
0c06,
fe6e,
01c0,
0ac3,
fce7,
f9c3,
f3e3,
fb69,
f9db,
effd,
f51f,
0429,
f54a,
f030,
ffe5,
04c3,
049b,
02b8,
0303,
05bc,
fc44,
03fd,
fc53,
fdd0,
05c5,
fd8a,
fc2d,
0649,
f8d5,
fb1f,
fd1a,
e790,
09ef,
0589,
0437,
fc9f,
00cb,
0d62,
fb42,
0892,
fa7c,
fa73,
e82c,
02c1,
03f9,
0958,
fc05,
fbd7,
0a3a,
0bae,
fc27,
065f,
f6ba,
0614,
f89d,
ff66,
0822,
010f,
f9d1,
0dfa,
f808,
04f3,
07d2,
0cbb,
fb29,
144e,
fc36,
020a,
0222,
fea4,
0d53,
fdd7,
0727,
09ea,
01bf,
056b,
12f3,
f715,
f550,
fdc2,
0969,
0adc,
08ab,
fe92,
fb42,
fb45,
06e7,
026b,
00ed,
ead2,
193e,
0b54,
0b87,
07b4,
08d0,
f5e1,
fde9,
0a5e,
f83b,
f759,
08ee,
f8c0,
017b,
0be6,
f99d,
f286,
0940,
eb5c,
ff95,
fa03,
0726,
f646,
0ac4,
03d0,
1839,
0fc3,
fd0d,
0c64,
0bc3,
089e,
f813,
ff82,
0a78,
026c,
fd53,
fab1,
005e,
0508,
fc42,
ebe3,
f8b3,
0f18,
e5cc,
0848,
fe3b,
f837,
0981,
ff70,
0734,
fef6,
fe35,
0997,
fe19,
ff75,
040d,
0ce7,
00b1,
f898,
03f5,
fed9,
fd22,
fb17,
ff0b,
eeee,
fa23,
fbba,
0928,
02fb,
fa27,
07f7,
0763,
0086,
0fc3,
f3f6,
fc6e,
052f,
04dd,
0165,
0c06,
fc52,
02c5,
fd7f,
0479,
07d3,
f81c,
082d,
f593,
0f36,
0e62,
068c,
fe87,
0749,
f917,
fe1b,
fc3a,
00af,
2697,
fc95,
0fba,
f54c,
fe69,
028c,
fe54,
fa50,
024a,
fde4,
05ba,
06ad,
06ff,
fce2,
0267,
eaa6,
0452,
0437,
fed9,
ffd2,
04f8,
046c,
0205,
0173,
f564,
05a8,
04c9,
0829,
fb33,
f9b0,
0281,
f921,
0b3b,
fa42,
024b,
03f7,
0224,
03af,
f7ec,
08e2,
fceb,
064d,
fdc6,
fedb,
065f,
f2b6,
ff5d,
02ed,
f74c,
028f,
f976,
15df,
ff7b,
0390,
0011,
0041,
ee9e,
0880,
043c,
0035,
028d,
fe0f,
ff8e,
fbd8,
05b4,
fb10,
faaa,
fef1,
06a8,
0053,
079f,
0141,
fecb,
03f9,
0db0,
fa9e,
fdb4,
0aa3,
02e2,
f8d6,
063c,
fb15,
f6d2,
f6c4,
021b,
f9ca,
fa2f,
f3fe,
0633,
f990,
1333,
057a,
fb12,
05ad,
0827,
f9df,
0624,
feea,
01e9,
f95f,
0666,
0080,
f875,
0280,
007b,
059c,
0916,
0a87,
fa99,
0683,
0401,
fdeb,
0518,
1d4a,
fc5c,
1a35,
f494,
02e4,
0de4,
03f1,
0c2e,
fe52,
fa93,
0d4e,
facb,
0643,
0f81,
0384,
fde0,
0739,
05cd,
fc93,
0a3c,
fc35,
fccc,
ffd8,
f210,
feba,
1c7e,
0991,
095e,
fe29,
04fb,
121c,
fb6f,
0772,
f979,
fda5,
055a,
0277,
0072,
fced,
0820,
fda9,
fc52,
fc38,
077f,
03d4,
05d5,
eb67,
0623,
0aee,
ffb3,
0da4,
05d3,
fb0c,
fd5c,
035e,
0147,
0432,
fa89,
0343,
0187,
09c7,
0633,
eccf,
0b1d,
0be2,
064d,
ffe5,
121b,
f9fa,
feea,
fc2f,
06e3,
fc9d,
f8b7,
0161,
fa05,
0b02,
19a2,
0040,
fb59,
0102,
f468,
f8ec,
0ab4,
fdc1,
f8d2,
f8cc,
00d7,
00bf,
050d,
01e8,
ff49,
0c2b,
fa81,
f350,
0301,
f1b5,
fa39,
07ca,
fbc5,
00a8,
0154,
0321,
048b,
00e3,
f9c4,
f4bf,
fb5a,
ffeb,
fb27,
f7b6,
00c2,
0127,
fa0b,
ff7a,
0775,
0988,
ffc7,
085a,
0aed,
fb61,
0272,
fb6d,
fa88,
0362,
093a,
0045,
f699,
080e,
0968,
06fd,
0ae3,
0946,
fcf5,
0886,
feca,
039c,
edc6,
02cb,
0182,
f9a1,
0015,
fe73,
0e08,
051a,
f308,
0174,
07f0,
f7e4,
060b,
0170,
034d,
0a99,
f8f1,
f4d6,
f6a2,
04ed,
0e3a,
f712,
fcdc,
02a1,
ffd2,
ff71,
0359,
02a7,
0c22,
f985,
fbbf,
fa14,
00d9,
fa31,
f49b,
ffb0,
0899,
f9da,
ff6d,
f9dc,
fe35,
ff7f,
0083,
088d,
fdfd,
01ee,
f691,
0765,
0aa8,
012d,
0170,
0286,
fbfd,
04eb,
0a84,
0922,
f35b,
1ba3,
f677,
02a8,
0665,
0cfa,
f388,
0681,
01b1,
0445,
f958,
046d,
fe56,
05cb,
f2d3,
087e,
f89d,
fa7e,
fe0a,
0be6,
fed4,
06f3,
f610,
fdde,
f9a3,
009d,
ff86,
fd4a,
fd94,
0193,
0930,
0225,
f6f6,
fa52,
f801,
052d,
f534,
0250,
f90d,
050a,
0319,
0fb7,
ec46,
f9fd,
06ed,
f51e,
068a,
f68d,
fb4e,
0ad4,
08c2,
0543,
0484,
04b0,
094e,
0474,
f86f,
02f5,
0152,
0374,
f3eb,
0705,
ee19,
0d0f,
fbe4,
0671,
f660,
0be4,
0239,
01b1,
f77b,
fb06,
01b1,
00d7,
fd50,
0560,
fbc8,
0d9b,
0d4d,
018f,
fb7d,
0883,
0a49,
0698,
0434,
fc25,
f34f,
fcf6,
01d0,
f99a,
077f,
00f1,
f7bb,
0f84,
f13a,
08c4,
06b1,
041c,
0985,
f998,
fd4c,
003b,
ec05,
fdb8,
fd4a,
1026,
0b99,
0078,
097e,
06d0,
1499,
fdfb,
fc61,
0175,
02c4,
ffca,
f167,
0a0f,
f9d1,
05b3,
fe01,
0498,
fb06,
09df,
0171,
ffcf,
0d8c,
fd8d,
0000,
06a1,
107e,
0337,
01e5,
04d5,
f771,
f796,
fc81,
fbc4,
fbbe,
10db,
0f49,
05e2,
004b,
00dc,
004f,
0594,
0d32,
f637,
0a16,
f5c2,
0a05,
0386,
0c9e,
0440,
fe8d,
1143,
ff0d,
ebb3,
02a2,
f79e,
f675,
fd51,
fffb,
0110,
f416,
0303,
fa1a,
fcd8,
fc37,
0b1f,
f2d4,
0d9b,
083d,
e08a,
038a,
01b1,
04aa,
f6b0,
088d,
f366,
00a9,
0209,
fdb9,
0729,
0068,
f9d4,
e544,
fdcf,
0728,
06f5,
0a62,
f723,
fb71,
06e7,
0419,
014b,
0672,
0330,
fd0d,
08dc,
179d,
0863,
01a3,
fd72,
f77b,
004a,
fb12,
f7e5,
fbe9,
0ad6,
0720,
fb1d,
0250,
fe20,
f297,
0e18,
f547,
0993,
120a,
07e2,
fd44,
fd7e,
04d7,
04b7,
011e,
0dee,
0386,
0144,
f7df,
081d,
ff84,
04c9,
027e,
f3a0,
03c9,
0acc,
0e4a,
fc63,
f932,
060d,
0780,
04b5,
0fc2,
0105,
f9b2,
00a0,
f81c,
02aa,
fe68,
0276,
0204,
f1f9,
0267,
ff16,
0d58,
0b2a,
f925,
fbeb,
ef8d,
fc9c,
ee81,
ff55,
003d,
fa5b,
0775,
01eb,
febe,
f7b7,
ee1d,
f5c8,
041b,
fa51,
fd19,
017e,
fdbe,
0142,
0159,
f844,
f810,
ff31,
f6ff,
fc8c,
f1ab,
fd37,
0a2f,
0107,
f60c,
f5fe,
fb1d,
f7ae,
049c,
fee4,
0339,
0155,
0398,
fad7,
fba9,
f476,
01f9,
040c,
fa84,
0ed1,
f44c,
fce1,
fe7b,
f923,
f36b,
03d3,
feec,
07ee,
f4f3,
fd2a,
fd33,
0314,
febc,
08d7,
f2e2,
00e2,
eb3b,
eea9,
0312,
fb54,
0351,
f3b8,
f962,
fab1,
027e,
f8e2,
0380,
0277,
06a7,
01a2,
fd13,
f97b,
ffd2,
ff3c,
088f,
071d,
f29a,
f908,
ff16,
fbe4,
00eb,
034e,
eb26,
fc39,
ff16,
f79c,
f52d,
096d,
00a9,
fe58,
ff57,
e9e1,
036b,
0b5b,
0690,
fd46,
176a,
0b09,
f93d,
f9ad,
00a2,
0a1d,
0586,
ea27,
0d54,
0de5,
0796,
0249,
fa16,
07fb,
f61f,
0996,
082d,
fd02,
f4dd,
efe3,
0404,
fdf2,
01b7,
feee,
fd8c,
ef58,
fbe1,
f7f1,
fc4b,
fa36,
076a,
fb7e,
0418,
072b,
ff86,
ff77,
098d,
fd01,
f6c2,
f75f,
00c7,
0042,
f810,
004e,
0945,
0b3a,
04cf,
0bd1,
f46c,
093e,
e331,
fe9d,
f3da,
fb9c,
fcab,
fbeb,
f92a,
fc78,
f033,
fed2,
03fb,
ffa2,
04ee,
057b,
fdf8,
0473,
fdbb,
fc4e,
0390,
031c,
f9f6,
fac9,
02c9,
00cb,
02d4,
fff4,
fb23,
09ad,
f66c,
f431,
f1ca,
fa0e,
f8a8,
032c,
07b3,
0195,
ff30,
031b,
f147,
02a3,
f897,
0935,
f719,
0189,
03b8,
025d,
ffc3,
02fc,
f716,
02e4,
f321,
f69b,
fe11,
00ab,
0428,
f4d4,
fd79,
ff69,
f72e,
025b,
f923,
f894,
fead,
f78a,
fba8,
fc12,
fd41,
0063,
f84c,
0089,
fddf,
f9a6,
f78d,
f934,
fb08,
04fc,
04b6,
fbb8,
fc0c,
f611,
f505,
f804,
fbe1,
fbc6,
fbcb,
f170,
0884,
f6fc,
fe73,
f464,
0584,
f7b4,
f83a,
f667,
f677,
03e6,
fd84,
f090,
0774,
f12e,
ff81,
fa0f,
fabb,
f96f,
0230,
0a8a,
0442,
f43a,
f948,
f35a,
fdd0,
03e5,
fbd0,
f49b,
02bc,
fb39,
0257,
031e,
059b,
f5a1,
f2ea,
fb26,
fad3,
f824,
fdea,
04b7,
f5b7,
ff0b,
f540,
06fd,
f31d,
0191,
0664,
f49b,
0406,
f9a4,
00b3,
ec88,
fa8b,
f3ba,
fd0b,
055f,
f520,
fb1a,
feeb,
f35b,
f281,
05fe,
01f8,
faba,
0b24,
fc4d,
fcda,
0310,
0464,
046e,
f671,
01bd,
f91e,
fea6,
fcca,
f27f,
fa41,
f73e,
fb6b,
fd67,
f556,
06bf,
f922,
f9de,
02be,
f9ad,
ff0a,
f581,
f9e4,
04c8,
0c7b,
f4cf,
026f,
f530,
f408,
0557,
f67b,
f7c4,
fb2e,
0527,
fdea,
0182,
fb2c,
f4ab,
f712,
01bd,
0104,
fd13,
f967,
fa6a,
f9ce,
0242,
fa6b,
f70e,
f523,
f9f3,
029f,
033a,
f409,
f3bd,
fb6a,
f42c,
f766,
0190,
017c,
fc4d,
f456,
f948,
0906,
f6c9,
f2a9,
fb69,
f46c,
019a,
ff89,
f7e1,
f5d2,
04eb,
ffab,
fc81,
fc80,
0064,
ff4e,
fe4e,
0528,
0496,
0677,
fb21,
062b,
fbc4,
fb09,
f34e,
fb65,
fa42,
0034,
fa2f,
0316,
f690,
01f7,
f49c,
02bf,
0165,
f78a,
feca,
f6f8,
0573,
f4e8,
0452,
0719,
faa9,
06cc,
f67c,
ff6f,
ff9d,
06b1,
05a3,
04dd,
044d,
03d2,
fd20,
f605,
fcac,
0a41,
ffd3,
0221,
f8ce,
024d,
fcb8,
0596,
011a,
04b0,
0bad,
fb34,
05b6,
0908,
08c7,
fd60,
e20d,
08be,
ffc2,
fffd,
03a0,
027b,
f9f5,
0121,
f62e,
f783,
080f,
0078,
0a3c,
0b36,
0773,
fbc3,
0533,
0951,
05f0,
f570,
febf,
02e0,
0c45,
0a5e,
01eb,
fb3d,
0483,
eb25,
0282,
ea5a,
fe73,
f9bd,
f747,
fcb1,
100f,
f6d6,
0332,
fc0d,
039b,
fec0,
0510,
0523,
f5cb,
0622,
0195,
01c2,
fd79,
05ed,
f9c7,
0c63,
0b63,
094c,
f915,
f7a4,
071d,
fa83,
11b4,
09f8,
0ddc,
ed10,
fdf3,
ffc4,
feae,
0977,
0953,
0f2e,
0177,
0318,
033a,
07e9,
0001,
046a,
f94f,
0312,
05a2,
099d,
fe7e,
0952,
f8f0,
f7d6,
f8d1,
03c2,
fa58,
048e,
0a3d,
00e0,
05fb,
02d8,
f67f,
0a48,
fd30,
04a9,
fe2e,
fc7a,
f1ec,
fd63,
fe9e,
fefc,
0464,
fda2,
01f2,
fcac,
080a,
f81c,
00ce,
fd20,
fa5d,
e9df,
ff11,
00ba,
fcbf,
01c8,
0c7c,
fbca,
0e73,
07b9,
0876,
f4f5,
076e,
f9cc,
fc78,
fc75,
f93c,
fdbd,
fe4d,
f84e,
05bf,
003b,
fe07,
0519,
006a,
f605,
023a,
019c,
fdb9,
0be9,
03bb,
078c,
08eb,
f93f,
e3b2,
fc80,
f006,
0d03,
040d,
0ecb,
eede,
076b,
01e1,
fcb8,
07da,
05d5,
04fd,
f953,
f9b2,
1226,
0763,
02e9,
0c5e,
0bc3,
0149,
1dbf,
fcda,
0456,
fe0f,
04ce,
fabc,
0197,
0a79,
00f2,
043d,
fdd5,
f291,
fa5d,
faa9,
ff79,
029a,
0491,
0c72,
f8af,
09d2,
fd71,
f61c,
f639,
ff39,
0551,
f2a7,
fe72,
0254,
048b,
0754,
fd5c,
ff64,
f19e,
06d8,
006e,
fa0a,
09c5,
f7c3,
f6d3,
fff6,
f5f0,
f837,
011f,
efb2,
0762,
ff2e,
0485,
05b2,
ff62,
070e,
f669,
07cc,
01da,
f55d,
061a,
f910,
0898,
01f3,
f179,
f935,
00ee,
fec8,
0b56,
05bb,
084a,
f9ff,
ff6c,
fff4,
e7f2,
155a,
f58e,
fad4,
0725,
01c1,
f45d,
01c4,
f93f,
03d2,
05bf,
067e,
01dc,
fa41,
fdfe,
0639,
f683,
0d7a,
0479,
0b8c,
fdb9,
02e2,
0402,
05a9,
09ba,
f369,
062c,
fee7,
fdfd,
feb4,
f795,
f964,
f9ec,
fb49,
ff33,
08b6,
0297,
06f9,
09eb,
05c3,
0429,
fc4a,
0135,
fee1,
f9e6,
ef16,
fd4a,
fcb1,
0d03,
ffb9,
0bd1,
074e,
ee1d,
0491,
04e7,
066c,
065c,
ffca,
f5f3,
0c18,
0814,
f663,
fd60,
04f1,
01a4,
ebab,
08cb,
002e,
ecf5,
0ac0,
086a,
f9c1,
fdb4,
0564,
00ed,
ff69,
f690,
e638,
fa02,
f896,
fd2c,
ffcb,
053b,
0342,
fc33,
00a9,
f33e,
0929,
ff43,
0394,
0135,
ff8e,
ff59,
f7d5,
07f0,
02b7,
04c2,
0029,
008c,
00cd,
ffdd,
01bd,
fdc6,
0654,
04d6,
f7f5,
0473,
fd70,
065e,
fe4d,
03fd,
f510,
0244,
022e,
036f,
04a6,
0665,
0096,
ffb7,
057c,
001f,
fa12,
0f05,
0183,
050d,
0034,
fd70,
07cf,
fad8,
fe7b,
fce8,
f4e7,
082a,
0af3,
f250,
fd32,
079d,
fe6e,
0244,
015b,
0001,
0114,
0578,
fad4,
00b9,
f43c,
f824,
fbac,
f825,
fbb5,
fa2e,
f994,
054d,
fd4e,
098e,
13f4,
fd75,
f586,
024f,
0665,
fd87,
ffc9,
05d1,
057f,
0929,
fbca,
ff8f,
fbaf,
fb56,
0556,
eaf1,
f367,
fd6d,
eeb6,
088e,
fc88,
fb76,
069a,
faba,
057e,
fea7,
030e,
ef14,
00c5,
0bb7,
004f,
fa2f,
0825,
f023,
fd8a,
fed2,
03e7,
f73f,
03de,
0906,
f79f,
fe8f,
f681,
0467,
f826,
f943,
f58d,
09fc,
02af,
02ad,
033a,
11a4,
07be,
ffd3,
fc70,
005b,
00f8,
051c,
fd7c,
eebe,
fac7,
0364,
0666,
fbcd,
0726,
eeef,
0097,
0772,
04b9,
0452,
f9d1,
0746,
0395,
0903,
ef39,
0933,
ec6f,
023b,
fba2,
ff24,
fe86,
0a24,
0639,
fe85,
f8d8,
0cf4,
fe19,
0a44,
002d,
e450,
fc5c,
fe42,
0237,
fa30,
fc27,
fee4,
fff3,
0d0a,
06e8,
f130,
038c,
ed8e,
f8a6,
0800,
097e,
037d,
0574,
0a19,
056e,
055d,
0633,
fd19,
05bf,
fc42,
f72c,
017c,
fa7b,
0319,
fb93,
026a,
0829,
0ce8,
f60d,
0210,
f99f,
f8db,
004f,
0869,
f533,
00ba,
0897,
087a,
0a8d,
0a5e,
02e7,
e67b,
ef36,
0422,
0398,
ff61,
fb00,
fb70,
0584,
09a1,
0983,
fda7,
f126,
fc12,
fe60,
02e7,
067f,
ff26,
075c,
faa4,
0ae9,
ea84,
fc15,
f62a,
f6bb,
05b2,
01f5,
0268,
0e91,
fb2f,
0911,
047b,
0ea5,
fd78,
0d17,
f5d3,
09cb,
03f9,
ffe2,
024e,
07f2,
f7b6,
fc6e,
fb64,
122b,
0399,
fbe9,
fab7,
07af,
025c,
0310,
0191,
09bd,
ef51,
095d,
000f,
fdd7,
02fa,
03f4,
07eb,
ecfb,
0448,
fb01,
fef4,
0274,
086c,
0b12,
0692,
08af,
fdf7,
0463,
0175,
f6c9,
f2ff,
0747,
000a,
0c97,
feec,
0a74,
0725,
ff88,
01eb,
0998,
092f,
02c6,
0344,
00d8,
069c,
0303,
fc3a,
054a,
0261,
fc9d,
0091,
0635,
04e3,
052f,
052c,
ee90,
ffb8,
fc96,
013d,
ffed,
0555,
0763,
f876,
05ed,
02c2,
f147,
0272,
f9f5,
f961,
f353,
f737,
f655,
fede,
0407,
0051,
ff05,
fc7b,
00d9,
fab3,
013c,
fd0c,
fcbc,
fee6,
0383,
f7de,
f4db,
0735,
feb7,
f677,
0470,
fcf9,
e2c2,
fe0b,
fb53,
03d1,
fc87,
fee6,
fc13,
f4a0,
0215,
fd05,
f8b9,
09ab,
05b1,
f557,
f752,
02d0,
0930,
00d9,
02fe,
fe41,
ff86,
043d,
fb92,
fa8f,
ff32,
e2fd,
f63e,
0084,
ff54,
f99c,
012c,
fd29,
075b,
04c5,
06d8,
06fb,
067f,
fd2d,
0274,
fced,
01c9,
0159,
03a4,
00e5,
fed3,
06ee,
095b,
03df,
fad8,
05d9,
010a,
fb59,
fe2a,
039e,
f9b5,
ff96,
044d,
05da,
fc38,
f9fc,
0730,
f4cb,
10f9,
fcce,
fe41,
05e9,
0328,
fe76,
ff8e,
feed,
0032,
02aa,
fb37,
ffb3,
fdd6,
050e,
0770,
06a9,
fe9c,
01bf,
fd1d,
0604,
012f,
042c,
0780,
faf9,
0287,
ff3c,
fb4c,
fab2,
eff0,
fbbb,
076d,
f8b2,
0002,
0799,
f569,
0953,
ff19,
fc69,
fd03,
ffa8,
09c5,
036e,
0460,
032b,
fd7e,
0c26,
fdb1,
02e2,
0329,
0203,
fd57,
06dd,
f5de,
0758,
0138,
056d,
ff8d,
f0c9,
0ad7,
07cf,
fcc2,
e945,
f150,
0251,
05fd,
ff37,
0774,
08a8,
fbe4,
0339,
0272,
0d8d,
fd24,
fb28,
085e,
f963,
07f4,
0316,
05c7,
fc93,
0982,
0d8f,
06f2,
0019,
052c,
fba8,
01c3,
07ed,
11ea,
010b,
0835,
05fe,
ea42,
feb6,
fbe1,
faad,
fb2f,
023c,
0589,
fa9c,
f2a4,
0479,
ec6c,
1318,
0170,
fbfe,
028d,
f2f5,
fb15,
fd4e,
f7ea,
fb3b,
f987,
e716,
fc55,
fe33,
05b4,
060c,
f65f,
f97a,
fff8,
fe02,
083f,
fba9,
00e2,
f5c8,
044b,
fb9d,
f91c,
0c5b,
063a,
fc0e,
ea8b,
efa3,
fbe8,
fe07,
febf,
fb26,
0a25,
fac2,
03c9,
03bd,
05e4,
0166,
fec0,
09f5,
08ac,
0337,
f72d,
f742,
0ca7,
0449,
012b,
fe77,
f766,
0086,
0361,
0969,
f122,
fd34,
ffa0,
fdb7,
fd95,
fcf2,
0323,
056e,
0829,
0258,
0203,
fb2b,
fabf,
f930,
0028,
edb2,
febc,
f8c8,
022d,
02fc,
ff1b,
0379,
00d2,
feae,
0008,
fe32,
0244,
057c,
f9e2,
049a,
fa22,
fbc4,
0408,
f8e6,
0c55,
e180,
ff79,
f9ad,
ed19,
fd3d,
02d9,
f48b,
02ff,
02ad,
00b7,
0895,
001d,
0202,
f8aa,
ff79,
07de,
09d1,
0a97,
0236,
0701,
0e01,
04b5,
0d6a,
f6c4,
f913,
03cf,
0008,
0636,
fe64,
0877,
01dc,
f7eb,
02f4,
03e6,
f856,
fe46,
096c,
ffc4,
f39e,
0479,
eb05,
f812,
fc3f,
0a39,
02d5,
fdd7,
0838,
06d4,
01e8,
f32c,
fdd2,
0112,
0445,
00b3,
01fc,
0764,
0d6a,
0d95,
fe8c,
f5cd,
fad4,
fe19,
fd5f,
fb8f,
08d9,
fd63,
06f5,
0533,
0229,
fea3,
037d,
fe99,
fb59,
0073,
fb75,
f9d7,
04f7,
0144,
0ca6,
faee,
015e,
fc63,
0bdf,
0c83,
07f9,
0597,
fb88,
f432,
fdd9,
0194,
020b,
fad1,
f91c,
0a7d,
fee2,
047d,
09e9,
fafc,
0105,
0618,
fe66,
0568,
0012,
f896,
f97c,
ffcb,
fd82,
f921,
fde0,
08e7,
0db4,
f3d8,
05f2,
0506,
fecf,
0789,
f9db,
eb8d,
03ed,
05c9,
03e4,
0ab7,
01dc,
06a6,
0e0f,
02b5,
02b8,
05c4,
0996,
ffed,
fff3,
007d,
00c4,
fe0e,
f8e2,
fff5,
057f,
fe93,
128d,
0b03,
09ae,
fa28,
00f6,
03cb,
fe9e,
0711,
0492,
fdf1,
ffd7,
fb4c,
fc23,
fc62,
f760,
0318,
facf,
1010,
f61e,
0787,
0c5a,
fedb,
fd64,
f46b,
fd46,
f3ef,
f4ca,
ff2e,
ee30,
14c5,
fd6f,
0a55,
03ef,
fdd0,
0148,
fc45,
fc61,
0404,
0c68,
094f,
f8f0,
02a3,
fd46,
f93a,
f5f4,
f992,
01f5,
0478,
f2a1,
fb79,
010c,
023e,
fff7,
ffc0,
f649,
0368,
f938,
dc4e,
fc64,
0b2d,
0616,
0974,
0162,
0657,
0176,
03e8,
f84f,
01f5,
f9e0,
083f,
0a35,
0812,
037c,
15da,
0758,
0032,
045c,
04a0,
01c5,
fcd3,
f7d9,
03b0,
0a1e,
0510,
0266,
0412,
f689,
fd6c,
0e4b,
033c,
0ccd,
0609,
0815,
fe7e,
fdca,
f97c,
0a26,
f8a7,
0542,
070c,
063e,
f605,
04b1,
0746,
ff1d,
f574,
05a2,
10e7,
02db,
ee20,
fc4a,
fae7,
02f9,
0620,
fb73,
ffb9,
02a3,
02d9,
11f5,
fd8b,
05e2,
f0e3,
004b,
facd,
08f8,
f37e,
ff5a,
f8cb,
fb0e,
fc63,
fce1,
fc41,
f7ed,
f44b,
fc6b,
f492,
0950,
f5bb,
0429,
fb01,
02e8,
f5bc,
08be,
040f,
0d51,
048f,
fb6e,
f8aa,
fd51,
fcf3,
034d,
f9d6,
f7d7,
0f68,
ff32,
021b,
0a7e,
f40e,
09b4,
0041,
04b8,
0263,
fa7f,
fe42,
fe7d,
f3b9,
fdca,
f8fb,
0383,
f5a0,
f7ca,
0323,
fea5,
faee,
fb47,
0713,
0866,
0649,
f070,
0320,
f32f,
046c,
fcd9,
0c35,
fdfb,
f990,
f940,
02ea,
f6ee,
fc80,
f49a,
f7a1,
0805,
06c3,
fc7f,
0060,
f4ec,
0ae2,
040e,
04e3,
f911,
0423,
f88b,
09c8,
fd51,
ffe7,
f03a,
f0bd,
0538,
ff01,
0540,
0002,
f6fc,
0992,
00f7,
092b,
0254,
0591,
04a0,
06d9,
fbe7,
0052,
0123,
03b5,
fd83,
fc14,
04d4,
fd1e,
fed5,
12e1,
fc76,
fdad,
fb7e,
0c75,
022a,
f9a1,
09a1,
fceb,
005f,
06dc,
f916,
06c3,
f0f1,
eb43,
f7a1,
fd0a,
0232,
faf7,
f8c2,
f9fd,
0234,
f919,
035c,
fc48,
0062,
fb15,
0139,
0083,
079b,
fde0,
f121,
ffdc,
ee61,
070d,
f914,
02ad,
fe40,
fa00,
f913,
10df,
0411,
fd2b,
0121,
024a,
e9f3,
feba,
fc05,
0de5,
fb29,
fc7a,
fde3,
f883,
023b,
f74a,
04c2,
0d2d,
fb91,
fb90,
f0a5,
0505,
08ef,
faaf,
fdf4,
0964,
e68a,
fca4,
fc8c,
00dc,
fe2e,
089b,
0425,
f39f,
05d7,
06bd,
ff9a,
04fa,
0123,
0dda,
03cd,
09da,
04c4,
058d,
070b,
e9cb,
0403,
ffe4,
1370,
0929,
f763,
0657,
f6b0,
fd13,
0578,
074c,
faf4,
0652,
fcf4,
fa92,
0540,
fc05,
0a7b,
02b1,
0850,
099c,
03d2,
092f,
05da,
0626,
002d,
f0c3,
f87b,
0087,
f7d2,
0adf,
0bb3,
fbbb,
fad9,
0286,
fa4a,
0468,
f74d,
03c1,
edfb,
070c,
fad4,
fa95,
033a,
f2bf,
f12a,
027e,
fc58,
fc08,
0808,
fe99,
feae,
007a,
0414,
03d4,
fdd8,
0aa3,
02ec,
086f,
fe81,
0451,
f7b7,
e3d4,
fd80,
eeaa,
0481,
fd42,
06ab,
fdc4,
fe98,
ff53,
0107,
fbdd,
042f,
03db,
fb35,
0150,
026e,
091c,
feea,
0257,
0ce9,
02df,
09fb,
05ca,
f7a8,
04bc,
e772,
057a,
fb7f,
f7ae,
0383,
fe2f,
f8d7,
f959,
fa9c,
fc80,
0107,
f81c,
f1e2,
0f70,
ebb3,
040a,
0071,
fff2,
f5ba,
02ac,
0419,
fa97,
f907,
ff8d,
0ba0,
fd99,
1065,
fc77,
0246,
0a3e,
ff1f,
0789,
04d2,
04fa,
083e,
0628,
fb1e,
0b72,
fc8a,
0221,
f832,
fe09,
ffbd,
fce3,
fe51,
0ac0,
f74d,
ff13,
fa68,
fc5c,
0a1f,
fbc0,
1188,
fa9f,
f505,
07c0,
055a,
068f,
03b1,
01ea,
f59f,
f735,
0406,
0433,
f721,
067d,
fbe2,
f226,
f799,
fac1,
faf5,
fc93,
faf7,
1070,
f734,
0861,
fa87,
f627,
0c75,
0463,
ff96,
f7a5,
fd01,
09d3,
008a,
ebcb,
fc0a,
fe19,
0558,
f66f,
0d1a,
fd66,
00b8,
08c6,
0088,
0684,
078c,
0b8f,
e429,
00c6,
ffd8,
0406,
00cc,
f913,
0db4,
fe62,
04f6,
0164,
0bc5,
f422,
0059,
06e1,
0542,
0971,
007a,
0a82,
f4cc,
0472,
0aa5,
fce7,
f9a5,
f8f5,
fbdb,
07e3,
f988,
058d,
0095,
0fba,
fc1b,
f0e4,
0b4c,
ff52,
f908,
00b9,
13f1,
0286,
04a9,
0d3c,
06e7,
04d5,
fc23,
0643,
091b,
0878,
ff3f,
079b,
01b5,
07a0,
0203,
fb43,
f097,
09dd,
ff8d,
fd0c,
098c,
f789,
0088,
f516,
0a87,
0f1d,
f173,
08e6,
0e11,
0232,
0b23,
03fa,
05ae,
fd5a,
f565,
0743,
00fb,
fa2a,
fc4d,
fa98,
f3ea,
fd42,
0179,
0b20,
046b,
fbb1,
024c,
fda1,
ffb1,
0868,
0842,
055f,
fabb,
031b,
ff5e,
fd27,
051f,
0733,
ffab,
119d,
fa64,
ea2b,
0fc9,
09c8,
0367,
ff4c,
f80e,
fa6c,
ff64,
fc80,
fcef,
fce5,
fdda,
094e,
fa06,
facd,
f383,
04d5,
020d,
0c2b,
faef,
ffef,
fafa,
04a2,
feb1,
f426,
fba2,
07a7,
fd5a,
0558,
fdac,
fc44,
fbf6,
fe71,
f9c7,
f970,
f269,
e700,
0773,
fb2f,
fd39,
f50a,
efef,
f5c9,
f888,
05f6,
0dbd,
07f5,
fd8a,
03dc,
fddd,
0434,
f117,
feee,
0b8e,
0f08,
009e,
fdde,
0e5f,
f667,
f67b,
fce2,
e53a,
0526,
0f2d,
f6e9,
0003,
f228,
0446,
f89d,
f5a3,
ff2c,
03b9,
f6bb,
fc42,
08e7,
0d29,
09fd,
f805,
0c6f,
0cfd,
fcb9,
fc68,
0126,
fe49,
04f0,
00e2,
0373,
fdff,
0bd1,
f2b5,
0a08,
0e77,
f82f,
f819,
fa38,
0498,
09a8,
fd4a,
0101,
0abb,
ec3b,
0d77,
f7dd,
05ac,
ff32,
f987,
0040,
fa05,
f605,
011a,
07df,
fa3f,
0480,
ef26,
03da,
fdec,
04b7,
ffd6,
f93d,
0dcc,
07c0,
0768,
0a37,
0662,
028f,
f78f,
f26c,
f97a,
084c,
03ae,
043f,
fdd1,
f6ab,
fbd5,
0746,
fb84,
06c1,
fab6,
04fc,
073f,
0489,
080d,
fb7f,
ff41,
0756,
fed2,
f48d,
009c,
0858,
f7dd,
f9f1,
0274,
fe47,
06c0,
fe21,
06c9,
0d78,
0ca3,
09aa,
e39b,
f07f,
0865,
04ba,
006b,
fe90,
0384,
fc5b,
0ee3,
017f,
087c,
f2eb,
fd01,
091e,
f71b,
0dda,
ffdf,
fa99,
fce8,
ff19,
fd60,
0383,
e92e,
f9f7,
f92b,
f784,
f983,
10ec,
f993,
0d11,
07b3,
f243,
f8a6,
0c52,
fe6c,
0027,
031c,
07c3,
fd5f,
054a,
ff99,
ef01,
090c,
090b,
0dab,
fcca,
fe01,
fcc9,
05dc,
0bdc,
0c94,
0ac4,
e930,
0034,
02d0,
02c7,
0370,
0753,
099c,
f87d,
fdd0,
0637,
0108,
fcc3,
035c,
05c0,
0715,
f7ff,
03d6,
03c3,
00c1,
060b,
e759,
04b3,
fad5,
fda9,
0695,
0949,
0b8f,
ff33,
0686,
fc19,
ff4c,
0342,
fd7f,
01a1,
06e3,
f38b,
fe5e,
0918,
f70f,
036f,
0391,
0070,
0b1a,
0f13,
06af,
f126,
0215,
038f,
fb0c,
fc75,
f6bc,
f73b,
f7dd,
08fa,
fd16,
05ef,
ff5e,
0b72,
ef12,
00ff,
f191,
0077,
0206,
01a6,
fbe1,
0a6e,
03b7,
0d72,
018f,
edaa,
0336,
0c74,
f6b4,
00b6,
f92d,
f960,
015f,
0685,
fa83,
02a8,
e63d,
efe7,
fc8b,
ed48,
0259,
00fc,
fe35,
025f,
f732,
fa62,
0695,
0aef,
096c,
0799,
f345,
027f,
0214,
05a5,
0ac0,
febe,
0b8b,
f9b1,
1915,
0585,
fe4a,
06ef,
e7a0,
fc03,
f7b1,
00cc,
faf4,
0821,
0976,
04bf,
0403,
fa5a,
fa9b,
01f2,
f764,
09a8,
f601,
04b3,
00ed,
004d,
03c9,
0610,
fedc,
0cb7,
002c,
f7e2,
01b0,
00ec,
fc49,
0b8d,
f188,
097e,
01da,
fa6f,
fdae,
02bd,
0292,
07a4,
f7b6,
0014,
0954,
fb2e,
02b8,
08d1,
020a,
0774,
0260,
07ed,
fe6c,
faab,
fff0,
f961,
06dd,
ff87,
0893,
fb26,
fa0e,
073a,
07c1,
0980,
0d43,
0b6d,
077f,
fc74,
069b,
faa7,
fc9e,
feb7,
f3cb,
fb32,
01e8,
03a5,
05b0,
1230,
fa52,
f5d0,
f4b5,
00de,
0190,
045a,
0d12,
fdaa,
099d,
ff78,
f90e,
f785,
011b,
1458,
01be,
005e,
0389,
08d3,
04cf,
e2c7,
05fe,
09bf,
0df4,
0f94,
ff28,
0737,
fc69,
f097,
fcd0,
0525,
f841,
f93b,
0649,
0c6d,
fba1,
f8f8,
0a80,
0ddc,
f12a,
00b7,
f65f,
0567,
08c4,
0346,
fdc3,
f708,
ed46,
0013,
f5e6,
f810,
0988,
fa80,
f6ab,
0ca2,
fd4d,
fd64,
f0b3,
136e,
0028,
efc9,
0576,
02c2,
f7e8,
03fc,
04fb,
0418,
fbaa,
fb93,
0371,
08b3,
fe2a,
f4af,
f67f,
0031,
faee,
14ab,
0915,
0126,
edb6,
fdc3,
0c6b,
03dd,
036b,
07c2,
078e,
fb7a,
0a25,
04d1,
01fc,
0b94,
0028,
f5c9,
0818,
0311,
0058,
02c0,
fa0b,
0325,
f9f9,
ff01,
0287,
f229,
05e3,
08c3,
eebc,
015e,
0569,
fcf4,
0a55,
fffe,
ff3b,
02d5,
f224,
ff0c,
f2b0,
0385,
04f7,
ffb3,
072e,
08c5,
f955,
0ded,
01ef,
0029,
ed08,
fe4c,
f18b,
fa5a,
0069,
ffa9,
02fc,
0ac3,
0549,
0a5c,
ff38,
fc89,
f42f,
fdc6,
0c01,
fa3e,
ff82,
f096,
fc88,
0c15,
ff69,
0050,
f53c,
f0bf,
fd0d,
0089,
fade,
f970,
ef56,
0544,
0935,
fe2d,
0729,
055b,
e74a,
e857,
0406,
f638,
159d,
0abe,
0905,
f7ec,
f27d,
0655,
f816,
f8ef,
feb8,
fd00,
f9aa,
022b,
170c,
02ef,
0790,
08ce,
0ad0,
0334,
06b2,
0493,
fb37,
082a,
f3db,
f865,
f823,
0847,
fbbb,
1370,
fb92,
fce9,
06ad,
fe84,
0389,
faa0,
067c,
16f4,
f195,
08d6,
0169,
f2f4,
ec62,
0022,
0a45,
f7a3,
fff8,
0035,
0b48,
01cb,
04c5,
ffc9,
ff5a,
0217,
fb64,
0617,
fbbc,
0678,
f75a,
fb47,
f2c7,
0eaa,
08d0,
f4f9,
0540,
061b,
0099,
0162,
05db,
09ff,
f8e6,
051d,
f902,
0409,
0133,
05fc,
1401,
0284,
f694,
0214,
0a8e,
04e6,
016a,
f766,
fcfd,
fc5a,
020f,
ff46,
eff3,
05a2,
f65a,
018f,
0268,
0900,
fe39,
014d,
01a8,
fc39,
01e6,
01e8,
027e,
f79b,
fe88,
078b,
f60c,
0642,
0041,
0567,
0779,
19f8,
fdba,
f6c3,
0129,
04ec,
fa10,
f033,
0333,
fa73,
06a9,
ffbb,
fa2d,
febc,
0e7b,
00d5,
fb33,
f9e3,
fa94,
0c1e,
f6df,
fa56,
fc25,
f711,
0126,
1535,
fdfb,
f413,
f6d3,
fd18,
f897,
fbc6,
085a,
ff69,
02c1,
f8e2,
07ee,
00d1,
f708,
098b,
0919,
ff9a,
f96e,
0047,
f73a,
0855,
f5c7,
fb00,
0ddf,
0011,
fc74,
072d,
02cf,
f706,
f8fb,
0709,
ecbb,
0721,
fd36,
0017,
018a,
0126,
0452,
f98a,
fd7e,
0167,
0eed,
0235,
0916,
fe74,
f422,
0063,
01bc,
07e3,
02f0,
f6ca,
0568,
fb57,
f9a3,
0237,
0694,
0933,
0556,
0177,
003e,
f20f,
0f5b,
ff2f,
f97b,
fffe,
07a3,
00f8,
f6b5,
0028,
f7e1,
fa39,
061a,
ff17,
fb45,
ff34,
05c2,
0a01,
fea7,
f8e0,
fb48,
f70a,
ff09,
024e,
f466,
fef6,
0193,
078c,
f11c,
f9e7,
fe32,
fea2,
045c,
09b2,
fb39,
046e,
05b3,
041a,
f704,
f756,
0473,
0891,
0e0f,
ffd0,
fe19,
f95b,
021a,
0455,
0591,
f87a,
0719,
07d7,
0a73,
ff28,
0616,
fa19,
0738,
0820,
fd2b,
0135,
0dc9,
fcdd,
0d21,
11c0,
06b9,
fe2c,
08de,
04e1,
0963,
f432,
0d83,
fbaf,
f844,
0055,
f651,
f65b,
056b,
fd8b,
0a4c,
f69a,
ff87,
0352,
fc72,
04dd,
f7e7,
fa82,
0878,
f7c7,
17d0,
05a9,
f710,
0677,
fd83,
0700,
f90d,
0591,
f1e6,
0a93,
f9fb,
0444,
02e1,
ea7a,
0978,
0270,
05a3,
ef62,
fcc7,
fe04,
0310,
e5d6,
079d,
009b,
045f,
ff8f,
f8ef,
022c,
0835,
fdfe,
f2f8,
0808,
ffc5,
08f2,
0259,
fd6a,
f5ce,
020d,
fc96,
feb8,
04f9,
f705,
ff15,
f7ea,
0221,
07ff,
f514,
fb6d,
fb05,
0266,
03b0,
f036,
f6a2,
0109,
00a4,
0570,
02be,
ff7d,
fa63,
feb6,
fb33,
f272,
f655,
f433,
074b,
0979,
020f,
f2c2,
f8cd,
0bea,
003a,
0429,
0617,
038a,
08d6,
078f,
fe00,
fdf7,
004a,
0698,
018b,
07f2,
fcaa,
0565,
faa4,
f9ae,
0382,
fe3d,
f2ff,
fd82,
fad0,
02fc,
0b26,
05b2,
03a5,
006a,
0a34,
00f7,
ea25,
f737,
fe8a,
fdd6,
09c2,
fe02,
0971,
f8c3,
01c8,
092d,
0b6f,
f216,
041c,
ff60,
fd3d,
0084,
fd57,
0802,
faac,
05e1,
ffaa,
0878,
eba1,
fb32,
ff7b,
0871,
048f,
1102,
fcf1,
fd6d,
09e8,
fbbf,
fbcf,
034d,
fb43,
fa86,
0811,
fd2e,
0770,
0b73,
fc5e,
fdab,
05ad,
003b,
fe14,
0112,
f9f3,
09b8,
fde7,
ff3c,
0632,
082e,
f2fa,
0075,
0019,
f5d0,
0c1e,
0103,
0193,
f7a9,
04f4,
039b,
fdaa,
060d,
06a8,
fb90,
0a1f,
00ef,
fdb2,
01c7,
f783,
09d0,
f9e9,
fcc8,
036a,
fe73,
0113,
099c,
1825,
fcf5,
0187,
04d4,
ff55,
085e,
07d4,
0396,
0cd6,
0449,
032c,
fe5f,
fc26,
fa54,
fd8b,
fde8,
059c,
09d7,
ffe3,
f1d4,
02c7,
fac6,
0881,
fb9b,
fba1,
0354,
061a,
fe0c,
fc24,
fb47,
0359,
073c,
f9c3,
fe18,
fee7,
fda1,
fb59,
fe28,
01cf,
fd97,
0646,
0b52,
019d,
fe6a,
06cd,
0148,
fa64,
ffe8,
0190,
f484,
02ec,
00af,
f98f,
01b7,
f9e9,
f6b0,
0213,
f021,
fb73,
fb7f,
f8c3,
0335,
fcc0,
fea7,
07a1,
01a9,
0752,
fe5f,
f42b,
07ae,
02a1,
fefa,
0209,
fded,
088c,
029b,
281d,
fcad,
fdcf,
fe69,
efdc,
feb4,
fdd2,
fcfa,
0300,
fe47,
05af,
04c0,
036f,
fbcf,
fc6b,
04eb,
fe42,
0bc0,
f159,
01cb,
02fc,
0ba8,
0914,
03d0,
fd0d,
11e4,
0230,
f9a9,
0169,
f8fc,
fd98,
0d84,
f705,
00fc,
0a0d,
01ab,
00a3,
ff43,
033f,
fd9e,
03db,
fa15,
fec3,
02d4,
08cd,
f9da,
0cfc,
0b27,
fae2,
0656,
0830,
0596,
00f2,
0280,
f8a4,
0260,
079b,
06a2,
ff7f,
032c,
036d,
02a4,
06dc,
0b29,
fa7e,
faa0,
075f,
0607,
f768,
09be,
f32d,
084f,
f960,
099a,
fd6a,
ef0b,
fdb3,
fa84,
0250,
ff9a,
fc56,
0c0a,
f97a,
07e4,
fda7,
017c,
0356,
fcb2,
05fd,
1402,
fe02,
fbfd,
0400,
0d5e,
f81e,
f50f,
08fd,
fb6b,
0919,
fabf,
f8c6,
f890,
09e9,
0028,
09f1,
f940,
f6aa,
071c,
02b2,
fcdf,
f394,
042b,
f901,
09e8,
042f,
028e,
01cb,
08c5,
f8c8,
f984,
fdd2,
fe1d,
01d3,
056d,
0d4a,
065e,
06da,
06d4,
06a0,
fac0,
080b,
fbb7,
0709,
1437,
05db,
0294,
f59b,
0225,
0bc4,
023a,
fd87,
f40f,
05ec,
0477,
fce1,
04be,
f79b,
0452,
086b,
029b,
026a,
edc9,
009f,
0270,
0278,
027e,
070f,
0ac6,
07cf,
f512,
02c0,
0cd8,
014d,
f979,
0121,
0153,
f4a0,
024c,
f2f0,
028b,
0098,
f98b,
0348,
0995,
104a,
fdf8,
12f8,
ef8e,
f381,
089d,
f688,
f90d,
fca1,
0698,
efea,
f8d2,
0453,
ff79,
f3cb,
fe8f,
0c7b,
f4bf,
0240,
fd48,
00ee,
fa3d,
0188,
e4f4,
0ab4,
03f3,
fccd,
f725,
fc00,
f56a,
0506,
fa6b,
0a2b,
ee68,
f192,
f99f,
fe18,
fac8,
091c,
08bc,
fa5f,
031e,
0218,
f929,
fe04,
fe45,
002f,
f82d,
03f6,
09de,
f51d,
f1be,
05fa,
02d9,
0e62,
0bec,
f5b1,
fb17,
0efd,
0c35,
ff2c,
0997,
fe6b,
0cca,
fc70,
0564,
01ff,
08e9,
063e,
02c0,
f948,
0438,
0db0,
021a,
1049,
0142,
03be,
fd3e,
f8c5,
079f,
0b6e,
f543,
0343,
032d,
f3d2,
f09a,
0484,
0ab9,
f74d,
edf0,
fa8e,
10ce,
02e0,
fa4d,
0396,
0cb9,
fc50,
00fa,
0e71,
f8fc,
f562,
f8fd,
fdf3,
f502,
f9cc,
0253,
027e,
f9db,
f441,
1c7f,
fdf5,
062c,
0333,
012b,
f013,
0b3c,
fb12,
feab,
0407,
01a5,
1773,
feed,
0d1d,
e69f,
fdc0,
116a,
f5b1,
0084,
09ff,
f558,
03c0,
05fc,
fb27,
0392,
ff97,
ffc5,
fbcb,
02c9,
12f2,
08c1,
fd59,
0176,
f290,
01be,
f87d,
0253,
f5df,
fbf3,
f704,
09d6,
ed7b,
f7cf,
0119,
07ef,
08fd,
f826,
0694,
0238,
0354,
04fc,
0a06,
08f1,
ff3e,
00d4,
fe1d,
fb92,
fa02,
0456,
0813,
05cc,
05d6,
fb21,
0347,
040e,
050f,
0321,
0625,
0f0c,
f9b6,
fa9e,
0aac,
035d,
0504,
07e7,
fbaa,
f5cd,
ff38,
fede,
0372,
0525,
fc03,
05e5,
f9e9,
f33b,
0834,
09bb,
08fc,
fd5c,
fe9e,
f4b3,
f98c,
f779,
ff77,
0163,
1907,
f8a5,
0986,
fe8c,
fb89,
0344,
fa27,
fecf,
f93a,
fa3e,
fb91,
0ad2,
0954,
020b,
1827,
f6da,
f443,
fe9d,
feda,
ff5a,
fc16,
0f8a,
f94e,
08c6,
0438,
05ab,
fda0,
086f,
03ba,
04e2,
0215,
fe2b,
0445,
0123,
fccc,
f99d,
f3c5,
f517,
fd32,
006d,
fff7,
f6d1,
0145,
f921,
0b68,
fa5a,
051d,
06b7,
fc8a,
ffa4,
07b6,
0a13,
03ea,
059b,
f0f4,
0a2a,
0872,
022f,
12b0,
fa1b,
f7f9,
fdbe,
05d3,
fc87,
fbb1,
047e,
ff7a,
07cd,
0473,
f95f,
ff8a,
0016,
fffd,
ff23,
055c,
f97d,
012e,
024a,
f6f0,
fd48,
02a9,
0877,
0647,
061d,
f75f,
fe33,
0ad4,
085d,
029b,
f750,
092b,
0266,
0631,
fa16,
06de,
fb88,
0887,
0755,
f8f1,
f8be,
f89d,
fa21,
f78c,
05d0,
0f21,
06e4,
fe47,
00c5,
faac,
fe72,
f942,
fb16,
0bdd,
0773,
0065,
fa09,
ff2d,
0503,
0011,
0746,
00a7,
0228,
fe5a,
fb43,
f00e,
0028,
0987,
0350,
fe15,
0e6b,
05ba,
03b2,
036c,
0adb,
1616,
0946,
f8ba,
0aba,
1a6e,
fee9,
000c,
05b1,
fbd6,
0823,
fcdc,
068d,
faef,
0aec,
070e,
0422,
0832,
0ca1,
02e7,
fff9,
06a0,
fcbf,
0b54,
0926,
fb88,
ee60,
0a1d,
fd54,
f8f5,
f88d,
06cc,
fe6b,
faaa,
f8b3,
fa03,
f63e,
ff62,
07ff,
f41d,
005c,
ef87,
f809,
0f8b,
ff78,
f91b,
fb54,
0e87,
0683,
0c2e,
ffe7,
0cad,
fdf1,
049a,
0093,
fa30,
f870,
075b,
03f6,
047e,
0543,
0373,
0546,
02c7,
f7cf,
02d7,
f5f6,
fc8d,
03c9,
06c0,
0af7,
f578,
0214,
ff51,
070f,
f971,
f87f,
fe26,
0694,
059d,
fe71,
0124,
fde7,
0b80,
01ae,
f9b9,
10fd,
fe62,
0570,
0a03,
0f18,
ff1a,
05c6,
0524,
f9b4,
061f,
dc67,
ff37,
0757,
fa49,
0012,
fd92,
f8d8,
fd68,
090a,
ff58,
0b05,
0678,
06f4,
062f,
ffd3,
ff0c,
fd46,
fd92,
08fc,
fbf3,
fa2b,
11d3,
fc07,
01d9,
ffc1,
fc4c,
fcad,
ddab,
fc2e,
00e7,
f83b,
fc31,
fdc3,
0108,
0752,
fd18,
0ad3,
f3d7,
0ad1,
0b38,
030a,
0220,
0665,
fd07,
f6fc,
01a0,
fa7a,
f35f,
f8f2,
f10d,
017e,
fea9,
f5cd,
051f,
0069,
0a23,
03f6,
0443,
084d,
f4ae,
fd29,
0d97,
fdea,
0b53,
050c,
07c9,
03b8,
08f0,
f9dd,
01df,
014a,
0796,
07ac,
076c,
fcea,
024d,
05a3,
0300,
f70c,
011e,
0851,
fb60,
00b7,
07ed,
016c,
f82c,
fed0,
04b3,
fedb,
0669,
02f8,
0355,
fa65,
fdc4,
025f,
f8a4,
f754,
05d3,
fbc3,
f9d2,
feee,
f788,
01eb,
f9c2,
0caf,
f3a7,
0d74,
f499,
f93a,
06d7,
003f,
099e,
0aa5,
094b,
fb73,
fcdb,
fdaa,
0058,
f799,
fc4c,
f881,
f78a,
0301,
f34e,
03f5,
038f,
f83b,
05a1,
10b7,
01ae,
ff30,
0029,
058b,
faaf,
ffa5,
0076,
ffad,
03b4,
0106,
fe97,
f924,
fccc,
fbf0,
f7da,
0436,
0ef7,
f096,
04c9,
f8f6,
fd4e,
f964,
fc88,
ff28,
f74d,
f894,
047a,
fa13,
0826,
fc0b,
f729,
fbcb,
e745,
062e,
0ac7,
0c7e,
0146,
f6b3,
fbaa,
0b0a,
0303,
0569,
02bb,
f6bf,
fbf4,
f99d,
0901,
fc39,
0e0d,
e510,
0f57,
ff8c,
016a,
f101,
ff81,
03f5,
09af,
eddd,
03a7,
fbca,
f962,
01e3,
f912,
fa85,
0bae,
026d,
f8b9,
044b,
0386,
0187,
fad0,
fc84,
f182,
ff4c,
fea0,
f6b3,
00dd,
fb67,
edbf,
0259,
021f,
0777,
fb06,
0466,
02ed,
0367,
0676,
05d1,
ed3e,
f553,
ff8d,
08a9,
0128,
043a,
f9c6,
0982,
0524,
0148,
f18f,
f769,
f7f6,
fd79,
0087,
0513,
0437,
0105,
0070,
fd69,
0746,
fcc7,
01c2,
0c1c,
0228,
ff8c,
fca3,
fa5f,
04a0,
09a4,
0425,
fb19,
f909,
1926,
ffd3,
055d,
0b56,
f80a,
0019,
f1dd,
09ab,
0ca5,
ec40,
fffa,
f9f7,
f8d1,
ffe6,
f7d3,
04ec,
06d9,
0175,
fcdd,
fb09,
f391,
0b1b,
ff54,
fa41,
0d31,
f96a,
f72e,
1628,
ffd1,
fdb2,
feba,
f3f9,
f8cd,
f376,
0735,
0297,
0535,
03bb,
01c3,
0443,
01d0,
0570,
f9b5,
f9f6,
f4d2,
f70e,
054d,
fec8,
0797,
f8c2,
0183,
09c2,
f89b,
07c6,
f53b,
0a2f,
f645,
fe4e,
fd4a,
f6d7,
00fc,
fcfd,
e828,
0203,
0708,
fd2f,
0bc9,
0412,
062c,
fe78,
0b10,
047e,
13b8,
09fd,
fdd6,
1b97,
fd72,
fe9b,
0822,
f9a8,
ffa7,
0888,
0744,
0f98,
f0e5,
03f8,
fa73,
0796,
fdb8,
02cd,
fbbe,
f91b,
012c,
03c7,
fce6,
fb0f,
03c4,
055f,
04a3,
0043,
f851,
049c,
0420,
fa7a,
0d60,
fa0a,
0197,
ffcf,
ff94,
fda9,
0858,
f4b1,
04ef,
f50b,
04f6,
0093,
0317,
0963,
0db3,
01aa,
111c,
0a90,
faf3,
068a,
f927,
faab,
ff90,
f9ef,
02d5,
0059,
0010,
f976,
016f,
07ee,
fe8b,
0dc8,
0254,
0417,
07e0,
f819,
024f,
fced,
08f4,
0cc2,
f85f,
fe90,
03f9,
fb51,
08a5,
f4f1,
0180,
0d0c,
03fb,
0e9d,
083b,
f40c,
fe29,
0021,
fd3f,
0654,
ff19,
0a14,
075a,
0167,
02dc,
fa7d,
fe7b,
f9d8,
f8c3,
fcc3,
ff7f,
fa54,
f9e1,
0294,
0075,
08a1,
feaf,
04bf,
f86e,
ff94,
febe,
042e,
0a35,
f76a,
f646,
fea8,
fe3f,
0421,
fcab,
ff9f,
0953,
ffc4,
f858,
f539,
05d2,
061a,
01ab,
0349,
f2fa,
0cf4,
0024,
030d,
0f47,
fa87,
0409,
095e,
05a6,
01e4,
fe9d,
f849,
05c1,
f844,
14a3,
f5ba,
ff1a,
0a00,
fb1f,
f5be,
feea,
0842,
ff14,
ff3e,
0a03,
eea0,
f237,
0649,
0b0e,
0453,
fcf2,
01c2,
f982,
0772,
fc2d,
f1b2,
0987,
eff2,
061c,
0b1b,
0137,
013d,
fb5b,
fac6,
f0fc,
03db,
0518,
0029,
071e,
feae,
fbf7,
0a07,
01f8,
0154,
ffe7,
082d,
fd36,
0855,
f52b,
fa45,
ff1d,
02bc,
04f6,
fde9,
0192,
006a,
0075,
0e79,
fe1a,
ff37,
fa95,
e8ba,
f3bc,
fa4a,
fa12,
0569,
ffa3,
fa94,
0412,
f9fb,
042a,
fa78,
07e1,
021c,
fb30,
07b8,
00fc,
00f5,
0068,
fe7e,
fd86,
fd35,
f3b3,
f778,
f838,
0677,
ff8b,
02a9,
fd1f,
ffa6,
07f6,
ffa0,
017c,
07d7,
09de,
03b3,
0d13,
03a8,
faea,
046f,
020e,
f828,
03c6,
f27c,
fd2a,
ff24,
00d8,
0947,
f826,
0435,
049b,
fca2,
04d0,
05c5,
fccc,
09f9,
009e,
0587,
fc36,
f7aa,
068a,
fc95,
ff37,
043c,
0845,
fbec,
0951,
fcc5,
fb7b,
06b4,
053e,
01b0,
0a1a,
0b0a,
0dde,
077e,
068c,
f485,
f16e,
04a4,
0070,
feb4,
ffa5,
fe7f,
feac,
0067,
fded,
0542,
125f,
01f1,
fa89,
0733,
ffd4,
fc37,
0446,
f802,
fb6e,
03c0,
fd38,
f7a6,
fade,
fd36,
0187,
001c,
febd,
099a,
0564,
00ef,
fcab,
057d,
f42c,
fb59,
01d8,
fcc4,
0227,
f9b3,
0a30,
f0f1,
f954,
fed3,
fa87,
ffa6,
1277,
ffe7,
ff30,
f739,
fd46,
fd5a,
0672,
f780,
0492,
fefa,
01dc,
04a1,
fbad,
fae1,
031f,
ff50,
03dc,
00ef,
01f2,
0211,
fec3,
0158,
03c8,
fddc,
058d,
fb09,
02d9,
0649,
0244,
02f7,
0566,
02f4,
0257,
fd9e,
0714,
012c,
ff33,
0699,
f8d1,
0842,
0292,
fac2,
072a,
ff95,
04de,
047f,
fe0e,
050a,
fee1,
0a73,
0192,
179a,
02de,
f98c,
f9a7,
01c7,
0004,
08d2,
fec8,
15cc,
042c,
0031,
06dd,
0327,
01ea,
03b6,
0112,
fc8c,
f908,
067d,
0c40,
0345,
ff63,
04b0,
ffe0,
ff66,
0f1b,
003c,
0048,
f418,
05d2,
0080,
01b7,
0941,
f5ed,
0756,
0a89,
f935,
01b1,
015f,
0031,
067c,
08b5,
00a3,
fcb7,
08c0,
092f,
ff3e,
fe25,
f8ee,
fb6e,
f5fc,
f3a2,
ff63,
ff66,
0326,
f630,
fde2,
fd29,
05ac,
fcb1,
f896,
0222,
00f3,
fd65,
fa08,
ffc3,
fd74,
12bb,
07a4,
0b39,
ff8d,
faea,
fc44,
065a,
0a69,
fa94,
ff63,
0013,
0232,
00f7,
025d,
06f1,
fba2,
fccd,
0434,
fd67,
fa94,
02de,
0237,
fdbd,
052c,
0513,
f91e,
06e1,
f97c,
06c9,
081a,
009e,
124c,
00ce,
0407,
fd7f,
f288,
063b,
13a0,
00f7,
0368,
0021,
fc84,
02a9,
0197,
0999,
fde5,
001d,
ffe8,
04fe,
0488,
01af,
026e,
fba7,
032f,
f391,
fa16,
f81f,
05ea,
fd5d,
f876,
f6f4,
f96e,
072f,
f8a0,
05a4,
f945,
f284,
fa72,
fff4,
f48b,
fb4c,
0452,
f71b,
fa1c,
fa32,
f754,
edc2,
0331,
0a9d,
fd5d,
04f6,
063c,
0778,
0886,
0339,
fc89,
044e,
0c5f,
fc5b,
ffad,
faae,
052a,
fdcf,
f983,
042f,
f6c5,
0173,
fad1,
0268,
f9fa,
03c5,
00ad,
0504,
0942,
fff8,
0a71,
08ee,
faf4,
fc68,
ffb8,
0550,
09bb,
fefc,
0190,
0b86,
030d,
02a4,
f9a1,
fe17,
fd78,
0162,
027c,
0f00,
f803,
fccd,
fad2,
f947,
0c1c,
fe0f,
f3d4,
045d,
fa5c,
f300,
05d7,
0274,
031d,
f72e,
0179,
1104,
0bba,
ebe8,
056d,
fce0,
0d1c,
006f,
ff09,
0760,
f88b,
0ee4,
037b,
fcc2,
fa2d,
03e4,
fcaf,
0084,
1464,
f929,
0f79,
01ab,
fcbc,
0369,
0b7d,
f71b,
04fe,
0939,
06c7,
0215,
fdd9,
fb53,
04e5,
f91b,
f776,
f1b9,
f807,
fc73,
0bfb,
06a4,
ff42,
04cd,
f68b,
0266,
05b1,
05e4,
f3a8,
0047,
f0ea,
034e,
08cc,
fced,
0857,
00eb,
01dd,
f263,
0eba,
01b3,
fa8f,
f698,
fc8f,
0251,
fd28,
0343,
0396,
0cc4,
ef1a,
02a5,
01be,
fc2d,
fa1a,
01b8,
171f,
fdf5,
04b5,
f84a,
0213,
f59c,
fa59,
eab7,
088f,
0185,
fbd2,
0309,
fe32,
ff54,
06bf,
f547,
fba4,
0168,
0d30,
f5d5,
0357,
08f1,
ff0b,
0212,
fdd6,
fe8c,
0186,
00b4,
f12d,
0116,
f9de,
f318,
0316,
0620,
fe0b,
0046,
00d9,
04c3,
f9b1,
fcbb,
03d2,
01aa,
0516,
f329,
0490,
000a,
f5be,
036b,
023d,
f52b,
0330,
0774,
f4fa,
fcb7,
fc50,
ff62,
ffab,
f0d2,
fbc3,
023f,
06af,
02fe,
fb18,
0450,
f51a,
fb87,
00eb,
fc22,
0676,
06e7,
fd54,
0319,
fff9,
fc37,
0563,
155b,
e9ab,
f339,
f22e,
f50e,
03b2,
f8f4,
05d5,
0906,
e24b,
f4d8,
07a4,
fa34,
035c,
02d4,
003a,
000d,
ff34,
fe6b,
f3b4,
0bf3,
00d8,
fd8a,
17cc,
06bc,
f069,
f527,
069c,
fe70,
f88b,
05d2,
fd90,
f46c,
0745,
fe48,
078f,
eb5d,
f8af,
0833,
f976,
fc3a,
0620,
0011,
0023,
02fe,
fe52,
ff21,
0a45,
0c4f,
fc97,
f561,
fc90,
0545,
fa4e,
0814,
fe01,
0016,
f702,
fa86,
f699,
ffcb,
fd77,
09cd,
0122,
fcec,
00d7,
fb7f,
f265,
feaa,
ff96,
02ea,
fc70,
fa8d,
fe4d,
06f3,
05b0,
05b3,
f555,
fb52,
0b33,
0687,
ff86,
f78d,
f770,
0580,
0695,
14f3,
eb41,
f965,
036a,
fff8,
fd1c,
f9d9,
f56f,
0a7c,
ff41,
0716,
f31e,
fa91,
f87b,
feb4,
0407,
fc21,
fadf,
ffe6,
f50e,
f292,
03a6,
0524,
f475,
fcdd,
06c1,
f84f,
0210,
06ac,
f4e0,
fbd3,
f89b,
fec2,
fc20,
fb17,
06b3,
ffd7,
0107,
1364,
07e3,
0af9,
f8b7,
0471,
f5a9,
f9f1,
fec2,
f6f0,
f432,
f168,
f93b,
0209,
0b20,
03eb,
f990,
fac8,
eee4,
fa5b,
ec2b,
02d3,
f3c1,
ff53,
0c7e,
fa71,
f5f6,
03ef,
017a,
09d4,
fe7b,
05d6,
04d2,
03a0,
fbf9,
fa5b,
045d,
eeca,
fffc,
05cb,
00bf,
fe51,
fe0c,
fb00,
f1ec,
f10e,
023f,
02d8,
0536,
00d9,
f50a,
038d,
12b7,
f61a,
f338,
efa1,
0729,
0683,
00f8,
0554,
024a,
073a,
00b3,
fc2c,
04b1,
05a9,
fae1,
faf1,
f9a4,
0530,
01be,
01a4,
f673,
f878,
fdcb,
fce1,
f919,
ffe5,
0046,
f669,
0740,
f7af,
f238,
f5f7,
fd08,
f679,
fb21,
f362,
03a7,
03da,
0468,
fed9,
0555,
00e1,
0336,
feac,
05e6,
06a6,
fd01,
0927,
04bc,
0363,
010e,
ffad,
ff54,
f2ed,
fd60,
06ac,
0958,
0e20,
0402,
054d,
f6e9,
077f,
01af,
faf3,
fa15,
0b51,
1028,
045f,
fbe4,
0761,
08cb,
0967,
05fa,
0633,
042a,
fefa,
03bb,
004c,
0ab6,
0308,
0a72,
0a3d,
fbc2,
03a0,
ebef,
007c,
0292,
fc50,
ff9b,
f890,
eb4d,
fc82,
fa54,
ff33,
0da4,
ff38,
ff58,
06c6,
fd29,
09b4,
f7cf,
f738,
04b6,
fcea,
ff0a,
f81b,
fa31,
06aa,
fd53,
feb6,
06f3,
f67f,
0951,
0994,
0703,
026e,
f7dd,
fdf7,
fee8,
0ae4,
08ae,
02a9,
ef73,
f7f9,
fdef,
0320,
03e7,
039d,
1114,
fdb9,
038f,
f8e1,
0004,
fee1,
076a,
f96d,
01a7,
f62d,
fff9,
f9c9,
f981,
1116,
f50e,
fd21,
f898,
0213,
0138,
fd3a,
fe9f,
09df,
0029,
f967,
1123,
042a,
0349,
048e,
fbeb,
f484,
e883,
0cd3,
03e3,
fe61,
0961,
0207,
f61f,
03a9,
f68a,
0a59,
006c,
0b02,
0124,
fe96,
02d6,
fcc9,
f2f8,
07c2,
f8ba,
0616,
0a7c,
0177,
06ef,
0260,
00aa,
fc3c,
0272,
06e1,
f451,
073e,
fd8d,
fd97,
fc9f,
f114,
00a9,
fd94,
003b,
03a7,
f507,
f820,
0a6f,
0336,
f7a6,
056f,
eba4,
ec45,
fd60,
fbde,
04b1,
075a,
fa49,
0512,
eb8f,
099f,
f6e3,
f32c,
f64e,
055b,
f55c,
0aa2,
02cd,
f6cd,
04b7,
fdf8,
015e,
093b,
f209,
04dc,
fb6d,
038b,
e495,
facc,
040e,
0a0c,
0445,
03a7,
02c5,
0e43,
08fe,
ffcb,
f9db,
0cc9,
0708,
05d4,
f5e9,
067a,
0690,
023f,
fbc5,
fdf1,
00dd,
0ea3,
fc4c,
fe04,
01c4,
fb46,
fa45,
fea7,
0430,
feb4,
fd1e,
f39c,
03ee,
00ec,
fa00,
0725,
f7a1,
0b1e,
0357,
f118,
0671,
06b4,
fc19,
05e1,
f6ef,
fe78,
fbfb,
0ba9,
ff45,
fa44,
058d,
0025,
0389,
fe44,
ff77,
0225,
0718,
08aa,
0165,
f72c,
036a,
fa99,
0802,
fcd3,
0b51,
0865,
020d,
036c,
ffb4,
ff40,
fd81,
f86d,
053d,
fd23,
03be,
fdba,
f935,
026d,
f741,
0544,
05a0,
f726,
02b9,
025f,
0050,
f45e,
fb81,
f580,
0540,
f581,
facf,
0a32,
fbea,
0240,
05b2,
009a,
0429,
ff65,
ff4e,
fbeb,
ffe9,
fadd,
0448,
012a,
f870,
f5b3,
fb95,
0590,
011e,
08cd,
fd09,
f89e,
094f,
fcfb,
005d,
02d0,
fe6a,
f9ab,
0290,
00f5,
f9dd,
fe86,
fc5e,
0ade,
08ee,
0adb,
014c,
ffcd,
fad9,
fad7,
f55c,
fc7e,
0151,
03d6,
fc3b,
f2bc,
0461,
0099,
007b,
fcf9,
fc7e,
f9e3,
fae4,
f35a,
038c,
0431,
051a,
fb29,
f47c,
04b1,
10fe,
0288,
09b1,
fd5a,
fb70,
fb23,
f310,
f776,
04f6,
054c,
0124,
fd12,
f62e,
fd3b,
fe89,
f843,
fe57,
f81c,
0765,
f9b1,
046c,
0363,
f7fa,
0896,
ffd5,
f69d,
0900,
00e2,
fcaf,
0724,
0136,
ffc2,
fb1c,
fd7c,
f939,
03ba,
fa37,
f53e,
0573,
07b8,
faa5,
ff10,
f9f2,
f727,
fe49,
0215,
01b7,
019c,
0386,
0763,
faef,
fac4,
ffcf,
fc6d,
0761,
feba,
f3e0,
01dc,
fd84,
0607,
0838,
0342,
05b3,
fa00,
007f,
007a,
059a,
fe9d,
02bb,
0e78,
00d5,
ee4b,
fc17,
fc0c,
ff74,
f677,
fcdb,
0285,
01c6,
fe15,
008c,
fd42,
fe0b,
fdf8,
fb09,
0700,
01e6,
05ff,
0190,
0341,
fc6d,
046b,
f8d7,
fa85,
f4e4,
faae,
f7a1,
fa9a,
fdca,
ff8c,
fb82,
0532,
03f5,
f940,
0a9a,
04b3,
061b,
f678,
0006,
fe05,
fec0,
06ad,
fd30,
f94a,
012d,
fd19,
fff4,
058f,
0125,
0160,
fae3,
f761,
044d,
0562,
f913,
fd5d,
f98d,
f8d8,
fd8b,
ff30,
fc43,
fabd,
fc95,
0688,
f1a1,
f6ca,
f87b,
f294,
00be,
0cbe,
fad1,
07c5,
f756,
f322,
00be,
f898,
fbbf,
ff03,
fefa,
0021,
fec0,
fc74,
fcc1,
feee,
fe7a,
004e,
ff8d,
fa83,
0264,
faeb,
04df,
0966,
fde4,
f902,
fe7a,
045a,
095a,
ff4b,
f682,
f44d,
f851,
f742,
f778,
00e1,
0a89,
fd24,
ffa7,
040b,
0506,
f765,
f6e4,
08c4,
0663,
fe05,
00cd,
055c,
fa20,
fca1,
fde5,
07b8,
0a6c,
1808,
0509,
0154,
0623,
02b5,
081e,
e820,
086e,
fc8a,
0a0e,
0653,
00bc,
fd21,
0ceb,
fcf2,
ffa3,
0273,
fe7e,
01f0,
fbd3,
fe7c,
04d4,
f780,
07e0,
10ec,
f2c0,
ff28,
0b1d,
046e,
073b,
0325,
0078,
028a,
eeec,
f9f2,
0d79,
fc12,
0503,
fc9d,
04d4,
0611,
f5ca,
fcae,
fa30,
03cb,
00b0,
f67b,
ff79,
043a,
0317,
0824,
fb41,
f6dc,
07c3,
03f2,
f51c,
f00f,
fed4,
01e6,
0447,
0413,
006e,
05dd,
fa7f,
ffcc,
f50c,
07d9,
09ee,
0869,
03be,
00d6,
0357,
0717,
f9ad,
fef0,
04cc,
078b,
013a,
010f,
fec1,
0043,
0674,
03a8,
0584,
040e,
0d54,
fe2d,
085f,
fdd9,
fbbc,
f97c,
ea65,
ffa5,
00f2,
f77f,
f771,
ff57,
043a,
fd06,
0276,
feec,
03b6,
fba9,
0280,
07be,
fda5,
0124,
fecb,
0460,
fdab,
113e,
f708,
ff3c,
fdab,
06a5,
01dc,
00ff,
03a4,
0993,
0197,
0cee,
0242,
01a5,
ff98,
0366,
0809,
0182,
04be,
f4a5,
f932,
fda5,
010e,
00c5,
0436,
0633,
08c5,
fe95,
0674,
f92e,
f463,
0bf7,
08c5,
022c,
0a0d,
0324,
07c2,
fead,
faf2,
f742,
00fb,
0303,
06fd,
faa7,
0003,
fc20,
fb83,
f61f,
fa4c,
007d,
073c,
021f,
0926,
fbef,
0835,
00ba,
fa75,
079a,
f0d6,
0426,
0083,
003f,
06a8,
072c,
fe93,
fa1b,
fb2a,
0331,
fe6f,
0591,
fb3a,
fcf4,
01bb,
fcdb,
0da3,
fa90,
0b01,
fe0f,
fa1b,
ece8,
f4a2,
f94d,
06cd,
e675,
029f,
0822,
04b8,
fa58,
0762,
03c3,
0ae0,
0407,
fb63,
f95d,
05a8,
056a,
0a5f,
0581,
f635,
fd77,
063c,
ee39,
fa2f,
0477,
f1aa,
f967,
0818,
0661,
0643,
06e6,
fb2e,
fc73,
fda2,
fe5e,
fb01,
fe89,
ffdc,
0a25,
fb8c,
fce5,
fe9b,
fbb6,
f9ab,
056f,
f4a3,
fc34,
f6ba,
fca5,
0709,
f807,
06d8,
0096,
0075,
f229,
028e,
00b1,
054c,
05b9,
075e,
0691,
fa97,
fa26,
0592,
06a4,
0175,
fe53,
fdd4,
0745,
ff54,
f7f3,
0985,
f078,
03f6,
092a,
0070,
ff1b,
e477,
f36c,
f297,
fc1f,
fb99,
f6e0,
07de,
01cc,
fb1d,
f8ca,
0843,
f61a,
0555,
0ae7,
f688,
0157,
0985,
091b,
1471,
0187,
0829,
0671,
ff10,
007b,
1871,
fd0f,
ff70,
051a,
fd5a,
0672,
0732,
f7b7,
0998,
0418,
01c2,
fa14,
fd47,
086f,
f49a,
01e2,
0274,
0a0c,
053e,
0240,
10bd,
f414,
0ed4,
f5c4,
ff1b,
fe89,
f36b,
035b,
05b5,
ec6d,
0440,
01d6,
0036,
ff6e,
f60e,
0a91,
0d16,
008d,
fef5,
02d0,
ffd7,
0776,
07c8,
ff9e,
f37f,
0148,
f8b4,
03cb,
054a,
036a,
08f7,
f085,
f210,
f24b,
0945,
04a0,
fc1d,
fdf0,
0586,
0038,
07a8,
ff87,
03f7,
fc48,
040d,
0794,
0a11,
eece,
12e7,
0ab0,
f4cb,
033a,
f929,
03ab,
0d9f,
ff06,
f9d5,
f5f1,
0ce5,
f943,
f9eb,
07fd,
0155,
0637,
0e5e,
06b2,
fcd3,
0830,
0826,
f914,
fa17,
f968,
f6c8,
002b,
fe92,
fc18,
ffba,
002e,
ff49,
ffac,
0762,
06e9,
0090,
095a,
052c,
fcae,
097f,
0b47,
0631,
0729,
0def,
034f,
f20f,
035d,
0722,
006d,
ee90,
f9c2,
0557,
0290,
086e,
01bb,
04cd,
0b0f,
091a,
03af,
fc29,
0a1c,
f984,
04d7,
018f,
02fe,
0a63,
02d2,
0a60,
04fd,
0159,
07bc,
0348,
ff8e,
fe20,
f5f0,
0028,
fb1f,
fc68,
f930,
03ac,
0116,
01a7,
f96f,
fdd4,
1196,
f8d7,
0107,
012c,
059d,
0b2e,
085b,
06c0,
00b8,
fa37,
0aef,
03fb,
05ff,
090a,
08c1,
f62c,
0991,
0043,
06c5,
0029,
f707,
118d,
07a2,
0685,
ed92,
0720,
0445,
fa4e,
0fac,
070b,
0179,
086c,
f681,
f3c4,
fd5c,
fec9,
ecdb,
0712,
0e1e,
0b55,
fbaf,
075c,
0638,
06cf,
f9e9,
020d,
0499,
f83d,
021a,
fb48,
0456,
f690,
0be1,
0423,
0e62,
0025,
0495,
0d71,
02f5,
03ac,
0747,
007c,
f185,
feda,
0e02,
0181,
010b,
fb20,
f46a,
0526,
f6de,
08fb,
fb31,
fd40,
fce5,
0687,
0680,
0733,
0f3e,
0189,
011a,
fc59,
04b9,
fec3,
0e0a,
0a1d,
0237,
085c,
03e3,
f415,
fbd3,
02d2,
02c7,
fe63,
002f,
f69f,
0862,
f542,
fc84,
e2f3,
09fc,
f9fb,
fd0b,
03aa,
ffb1,
07b3,
f88a,
fd00,
faec,
09c1,
fce5,
026c,
01e4,
0998,
05b3,
f39c,
fd77,
02d5,
ff79,
0585,
043e,
fe7d,
08e8,
f75a,
fc4e,
fc8b,
f983,
11f1,
0b6a,
0419,
f9f5,
0197,
f26e,
00a3,
ef4a,
0e7e,
f509,
052e,
fa79,
0661,
011a,
fe88,
fdc0,
0bb8,
0876,
fa2e,
fb87,
038c,
f68c,
0203,
0454,
f8e0,
f69c,
0468,
fc2e,
0057,
0265,
eb75,
0588,
08dc,
0f14,
ff6f,
0317,
0abe,
0269,
ffa2,
02ca,
fb25,
0f6e,
fc26,
fd16,
f36f,
ebfb,
f82b,
08ee,
03a2,
0a70,
f617,
f127,
f96b,
042d,
039a,
fd31,
f8b6,
ff9a,
008f,
036f,
067c,
0653,
010d,
fb54,
f5cd,
fe01,
f8df,
ff97,
fff6,
0737,
e8dc,
fc59,
0682,
0af9,
fcb1,
fa32,
070c,
0514,
096b,
0156,
0191,
0796,
fa22,
fb37,
fd43,
fac6,
f8f1,
f76a,
00cf,
fc35,
074c,
f9c2,
00d4,
05ec,
f54b,
0923,
fd62,
0e02,
f160,
fb38,
fda5,
fc06,
fc74,
f98f,
fbaa,
0399,
0a23,
08de,
f5d6,
0893,
003b,
0549,
0e24,
fa39,
f1b1,
f953,
02e8,
ffb6,
0a8c,
fab5,
fed6,
0b0b,
f2cb,
06cf,
03db,
0499,
0150,
ffb8,
f2ca,
076f,
df6c,
fe29,
0619,
0afa,
fd62,
ffe1,
0872,
13a4,
fe13,
08e6,
f6c2,
098d,
fb18,
028b,
075e,
fcbe,
0129,
faf0,
fd9b,
0495,
00ae,
099f,
0f1f,
f927,
08d4,
1489,
06f1,
0e45,
f8ce,
fc83,
fce7,
f899,
03fc,
0283,
f688,
0792,
0345,
0319,
05e5,
0c2e,
f342,
088c,
fa44,
fa59,
0a00,
0307,
fc70,
ffde,
0d34,
0a79,
143d,
004d,
fe01,
0727,
0a55,
0a22,
fb5c,
fdb3,
f9cf,
f634,
efd3,
f5c7,
0975,
0242,
034f,
ffd2,
03ac,
043a,
f857,
fe7f,
0196,
f2d8,
03a8,
0ad8,
0332,
fb31,
069e,
036e,
f954,
0112,
fe6d,
06cc,
0a6b,
04c1,
02c4,
042b,
fc08,
00bc,
fee9,
07af,
faaf,
05d4,
043b,
027a,
fb19,
f287,
f77b,
fbbd,
ffad,
045f,
05a2,
0412,
fce7,
fd92,
faae,
fd7e,
fdfe,
021d,
00f2,
fea3,
f685,
0c47,
fdba,
fdfd,
f3ab,
ff74,
1077,
f0fd,
ff56,
f4ac,
f90a,
fee2,
f99f,
f4dc,
fa19,
0153,
03b6,
11ca,
f871,
fdf8,
0d2d,
047f,
f98f,
1344,
00ad,
fd5b,
0232,
033c,
fe4b,
fd4b,
03d8,
fa86,
fb8f,
0d75,
ffdf,
01eb,
0652,
f454,
feab,
fba9,
f814,
faa7,
0339,
0076,
0c14,
ed10,
f741,
fdb8,
fc1e,
f70e,
fb9d,
05f5,
fb28,
0504,
0d32,
ff57,
0608,
00e7,
fac8,
0457,
f3fa,
f587,
065e,
0c35,
fbcf,
fc20,
f5a2,
fde5,
f7b3,
fb1f,
0027,
0a23,
06ce,
05cf,
fef9,
00a7,
fae9,
fec4,
fba3,
03d0,
0286,
fad6,
fe0d,
fb0c,
034d,
0454,
fe8c,
01a9,
fbea,
0aef,
fff3,
059e,
fee1,
fa92,
0522,
f5d3,
febb,
0881,
fd37,
00a9,
fb1b,
010a,
04ea,
f634,
0749,
fb06,
fc45,
0bde,
02aa,
10f8,
fb26,
fa8f,
096e,
f56e,
07c1,
fa2a,
0037,
f4c2,
0189,
fc43,
f93f,
0883,
fab7,
038c,
f7fe,
0560,
fe13,
fd75,
ed69,
fbb2,
0594,
0650,
00b2,
fe90,
fd52,
04bc,
041b,
fa77,
fd61,
fdfc,
f876,
030d,
fc7e,
0295,
fd34,
fecd,
ff61,
f4b7,
02c7,
fd7d,
f59a,
f912,
0a44,
f957,
f43a,
064a,
fde3,
f91f,
f0b7,
fa04,
f79f,
02d4,
0125,
fc2a,
05db,
f082,
01cc,
08bb,
0b62,
fe8f,
0369,
0b67,
feec,
08a7,
feef,
fc28,
055c,
f70b,
f725,
0d1a,
051d,
00be,
0397,
fa37,
f4a4,
fe51,
f27c,
f355,
fab3,
fbde,
fe5f,
0502,
fe64,
03b8,
0231,
0a7f,
faa9,
0b43,
053e,
fd6e,
08ad,
ff9d,
0960,
f934,
fac2,
0a8b,
0b28,
00b7,
0a15,
0cde,
02ce,
feb7,
042e,
f996,
033b,
f62b,
04e2,
00ec,
05b3,
03cc,
0a83,
ff74,
065b,
1c62,
0145,
fab5,
e18e,
ff5c,
fec3,
fe9a,
0831,
0875,
006e,
fe21,
fa79,
05f3,
0a2a,
ff67,
0861,
fb59,
04f0,
f6e5,
06d2,
05f8,
f7b6,
0865,
faae,
fc86,
0396,
01a5,
05fd,
06d7,
04cf,
090b,
f788,
068b,
01e9,
fc52,
0ddd,
fdf6,
089c,
fbc4,
fd94,
fb1e,
ff5b,
fd3b,
0769,
0700,
041d,
fc4e,
0513,
f5c9,
10a1,
fb5a,
f7a7,
00c8,
0407,
f338,
f9dc,
e2ee,
f892,
fe04,
021d,
0618,
fa63,
fb2b,
fef3,
07ad,
f60a,
fefa,
011c,
09bd,
f97b,
041a,
efc0,
0a19,
008e,
0328,
0724,
067d,
f95b,
f322,
f4c3,
fec6,
fb59,
044f,
0463,
05de,
017a,
0445,
0255,
0181,
063a,
ff2a,
09cd,
fe79,
fc7e,
f49e,
01b4,
fdec,
0139,
099a,
f9ff,
f83c,
0282,
fd3f,
0850,
f0ce,
0acb,
f855,
07b6,
0448,
fd6c,
006c,
f88f,
0066,
0301,
fd1c,
0294,
fece,
ff4f,
fe69,
fb2c,
f7ae,
f8e0,
013d,
0922,
0909,
03d8,
fb5d,
05e4,
f3fa,
f98d,
0802,
fc3c,
fc8e,
055b,
fc17,
f6fd,
04ff,
01ba,
f6bf,
faf6,
079d,
fc53,
fdad,
0238,
06e2,
f938,
0edb,
0318,
02a4,
032e,
0a79,
0613,
05f3,
fcd4,
055c,
fddf,
0418,
ff22,
f95e,
069b,
0143,
0b74,
f3a1,
04dd,
0174,
004b,
0878,
fbee,
fc66,
00fa,
fa11,
f4d6,
09a4,
f625,
08e7,
fd84,
f6fb,
eebf,
0fa7,
e74e,
f460,
fa46,
16d4,
0659,
0627,
060d,
1a21,
f311,
f865,
fd0d,
069c,
058c,
fa24,
082b,
047b,
0dae,
0bf0,
fe49,
0312,
0948,
0552,
05b5,
0053,
ff15,
166d,
fcff,
04b8,
0c72,
fb3a,
fbce,
f9e7,
ff07,
f9ea,
0118,
fbb6,
0062,
048a,
046b,
fc3a,
084f,
019d,
ff9a,
03cb,
014d,
083c,
0494,
0e65,
0e53,
0663,
0739,
f6c7,
077d,
0428,
0581,
054c,
021a,
ff39,
07f1,
0bf2,
02f1,
078b,
fd11,
f4ad,
0048,
061d,
0547,
f9c6,
0605,
0a98,
0720,
e588,
0589,
fdde,
ff1c,
0491,
00a8,
0ce4,
0212,
022c,
04c3,
00a1,
0074,
09ba,
e755,
eb2b,
0870,
ffa7,
07c8,
0060,
03f5,
f9e7,
fadd,
0232,
0428,
f03b,
0bf8,
0001,
093d,
03dc,
0495,
0805,
0285,
0613,
0bcc,
050b,
f754,
fe1a,
ffa6,
ff2d,
f629,
06a6,
fc8b,
f92c,
0394,
0965,
03be,
05b9,
0c12,
02dc,
fef7,
f854,
f984,
09cd,
fa10,
0f81,
efb2,
fcc6,
f88d,
08f9,
f924,
0a78,
fb2f,
f7ee,
022b,
0417,
03d9,
fb21,
f5e0,
005c,
fdb0,
0168,
fc9d,
f4d8,
fa1a,
f765,
ee65,
032a,
0991,
0df4,
f84c,
0a54,
f763,
f5bd,
f729,
f523,
0451,
0a21,
027d,
06a2,
0088,
0000,
08b9,
fe4a,
ffbb,
0133,
0258,
fbef,
0471,
fbd8,
09ad,
112f,
0bef,
0611,
05b1,
0232,
fa7b,
f727,
fbc3,
086b,
008a,
f3c0,
08d5,
0308,
0c96,
ffeb,
07ed,
0a2b,
0b1e,
fa18,
fe94,
f930,
fdc6,
f9d3,
023d,
f8b9,
feec,
058f,
0353,
f6e9,
0a0b,
00c6,
fe72,
f2d0,
fea4,
090f,
f4da,
fbbe,
09ed,
f97f,
0c51,
03d3,
fa3d,
06fb,
f860,
fae6,
063e,
f3f7,
06c7,
f657,
0212,
085b,
f0e2,
0c66,
00b0,
fd01,
073f,
076e,
fcd9,
f8a7,
091f,
fc6d,
ef8d,
0b8d,
08d2,
01d0,
07ac,
0763,
1af8,
fe44,
fe47,
fd9b,
0088,
03d4,
fb6c,
fe91,
0727,
0069,
06da,
0362,
f939,
09a7,
0b7f,
ffc4,
0001,
1207,
0c80,
039d,
044b,
0b7e,
0e19,
0c22,
faa8,
0d85,
103f,
fbad,
02fa,
040e,
0f4d,
0ea2,
fa9b,
fed9,
039f,
f989,
0512,
0201,
fabc,
fc58,
0120,
fc1d,
0775,
f801,
f9d2,
f442,
03ab,
ff5c,
02e1,
0125,
0ad1,
fe72,
fe45,
063f,
fbbb,
f515,
020d,
096f,
0651,
0207,
0665,
049e,
0a8f,
02d0,
f7ca,
ffef,
ff80,
fc0a,
0400,
fcc8,
fa59,
f406,
0185,
fac1,
ff51,
07f9,
ff6a,
0569,
fd6c,
05f8,
fd3e,
fb5a,
0664,
0035,
fd31,
06dd,
0399,
02a5,
f4fb,
